{
  "version": "1.0",
  "truncation": null,
  "padding": null,
  "added_tokens": [
    {
      "id": 0,
      "content": "<unk>",
      "single_word": false,
      "lstrip": false,
      "rstrip": false,
      "normalized": false,
      "special": true
    },
    {
      "id": 1,
      "content": "<pad>",
      "single_word": false,
      "lstrip": false,
      "rstrip": false,
      "normalized": false,
      "special": true
    },
    {
      "id": 2,
      "content": "<bos>",
      "single_word": false,
      "lstrip": false,
      "rstrip": false,
      "normalized": false,
      "special": true
    },
    {
      "id": 3,
      "content": "<eos>",
      "single_word": false,
      "lstrip": false,
      "rstrip": false,
      "normalized": false,
      "special": true
    },
    {
      "id": 4,
      "content": "<mask>",
      "single_word": false,
      "lstrip": false,
      "rstrip": false,
      "normalized": false,
      "special": true
    }
  ],
  "normalizer": null,
  "pre_tokenizer": {
    "type": "ByteLevel",
    "add_prefix_space": false,
    "trim_offsets": true,
    "use_regex": true
  },
  "post_processor": {
    "type": "TemplateProcessing",
    "single": [
      {
        "SpecialToken": {
          "id": "<bos>",
          "type_id": 0
        }
      },
      {
        "Sequence": {
          "id": "A",
          "type_id": 0
        }
      },
      {
        "SpecialToken": {
          "id": "<eos>",
          "type_id": 0
        }
      }
    ],
    "pair": [
      {
        "Sequence": {
          "id": "A",
          "type_id": 0
        }
      },
      {
        "Sequence": {
          "id": "B",
          "type_id": 1
        }
      }
    ],
    "special_tokens": {
      "<bos>": {
        "id": "<bos>",
        "ids": [
          2
        ],
        "tokens": [
          "<bos>"
        ]
      },
      "<eos>": {
        "id": "<eos>",
        "ids": [
          3
        ],
        "tokens": [
          "<eos>"
        ]
      }
    }
  },
  "decoder": null,
  "model": {
    "type": "BPE",
    "dropout": null,
    "unk_token": "<unk>",
    "continuing_subword_prefix": null,
    "end_of_word_suffix": null,
    "fuse_unk": false,
    "byte_fallback": false,
    "ignore_merges": false,
    "vocab": {
      "<unk>": 0,
      "<pad>": 1,
      "<bos>": 2,
      "<eos>": 3,
      "<mask>": 4,
      "!": 5,
      "\"": 6,
      "$": 7,
      "&": 8,
      "'": 9,
      "*": 10,
      ",": 11,
      "-": 12,
      ".": 13,
      "0": 14,
      "1": 15,
      "2": 16,
      "3": 17,
      "4": 18,
      "5": 19,
      "6": 20,
      "7": 21,
      "8": 22,
      "9": 23,
      ":": 24,
      ";": 25,
      "?": 26,
      "A": 27,
      "B": 28,
      "C": 29,
      "D": 30,
      "E": 31,
      "F": 32,
      "G": 33,
      "H": 34,
      "I": 35,
      "J": 36,
      "K": 37,
      "L": 38,
      "M": 39,
      "N": 40,
      "O": 41,
      "P": 42,
      "Q": 43,
      "R": 44,
      "S": 45,
      "T": 46,
      "U": 47,
      "V": 48,
      "W": 49,
      "X": 50,
      "Y": 51,
      "Z": 52,
      "a": 53,
      "b": 54,
      "c": 55,
      "d": 56,
      "e": 57,
      "f": 58,
      "g": 59,
      "h": 60,
      "i": 61,
      "j": 62,
      "k": 63,
      "l": 64,
      "m": 65,
      "n": 66,
      "o": 67,
      "p": 68,
      "q": 69,
      "r": 70,
      "s": 71,
      "t": 72,
      "u": 73,
      "v": 74,
      "w": 75,
      "x": 76,
      "y": 77,
      "z": 78,
      "¡": 79,
      "¢": 80,
      "¦": 81,
      "©": 82,
      "«": 83,
      "¬": 84,
      "±": 85,
      "³": 86,
      "»": 87,
      "Â": 88,
      "Ã": 89,
      "Å": 90,
      "Ë": 91,
      "â": 92,
      "Ġ": 93,
      "Ģ": 94,
      "Ĥ": 95,
      "ĥ": 96,
      "Ħ": 97,
      "ĵ": 98,
      "ľ": 99,
      "Ŀ": 100,
      "he": 101,
      "Ġt": 102,
      "Ġa": 103,
      "Ġs": 104,
      "Ġw": 105,
      "nd": 106,
      "Ġthe": 107,
      "ed": 108,
      "Ġand": 109,
      "in": 110,
      "Ġto": 111,
      "Ġb": 112,
      "Ġh": 113,
      "Ġwa": 114,
      "re": 115,
      "ou": 116,
      "Ġf": 117,
      "it": 118,
      "Ġl": 119,
      "Ġc": 120,
      "Ġhe": 121,
      "er": 122,
      "Ġd": 123,
      "Ġwas": 124,
      "Ġm": 125,
      "Ġp": 126,
      "om": 127,
      "Ġo": 128,
      "ing": 129,
      "ĠT": 130,
      "ar": 131,
      "ay": 132,
      "is": 133,
      "Ġg": 134,
      "id": 135,
      "il": 136,
      "at": 137,
      "en": 138,
      "Ġsa": 139,
      "Ġn": 140,
      "Ġha": 141,
      "ĠS": 142,
      "an": 143,
      "im": 144,
      "or": 145,
      "on": 146,
      "ĠThe": 147,
      "Ġth": 148,
      "Ġit": 149,
      "ll": 150,
      "le": 151,
      "et": 152,
      "ĠH": 153,
      "Ġher": 154,
      "ir": 155,
      "ot": 156,
      "ĠShe": 157,
      "Ġin": 158,
      "ĠHe": 159,
      "ver": 160,
      "ow": 161,
      "es": 162,
      "ck": 163,
      "ut": 164,
      "Ġe": 165,
      "ld": 166,
      "Ġu": 167,
      "Ġsaid": 168,
      "Ġ\"": 169,
      "ig": 170,
      "oo": 171,
      "Ġbe": 172,
      "Ġy": 173,
      "Ġshe": 174,
      "am": 175,
      "Ġst": 176,
      "ce": 177,
      "Ġr": 178,
      "pp": 179,
      "On": 180,
      "ith": 181,
      "ke": 182,
      "Ġso": 183,
      "Ġwith": 184,
      "ĠThey": 185,
      "ked": 186,
      "ily": 187,
      "Ġof": 188,
      "ve": 189,
      "ĠI": 190,
      "Ġhis": 191,
      "ri": 192,
      "Ġon": 193,
      "Ġday": 194,
      "very": 195,
      "Ġpl": 196,
      "Ġyou": 197,
      "ad": 198,
      "nt": 199,
      "ĠL": 200,
      "Ġthat": 201,
      "Ġup": 202,
      "st": 203,
      "Ġhad": 204,
      "el": 205,
      "Ġplay": 206,
      "Ġthey": 207,
      "ould": 208,
      "Ġmom": 209,
      "my": 210,
      "Ġfor": 211,
      "'s": 212,
      "Ġwe": 213,
      "ent": 214,
      "itt": 215,
      "The": 216,
      "un": 217,
      "ĠLily": 218,
      "her": 219,
      "out": 220,
      "Ġhapp": 221,
      "ly": 222,
      "ch": 223,
      "ĠB": 224,
      "Ġli": 225,
      "ittle": 226,
      "ound": 227,
      "Ġsh": 228,
      "Ġlittle": 229,
      "ime": 230,
      "Ġwant": 231,
      "all": 232,
      "Ġtime": 233,
      "Ġthere": 234,
      "Ġvery": 235,
      "Ġwh": 236,
      "end": 237,
      "se": 238,
      "ht": 239,
      "ome": 240,
      "Ġsm": 241,
      "Ġdo": 242,
      "Ġre": 243,
      "al": 244,
      "Ġne": 245,
      "Ġk": 246,
      "ack": 247,
      "Ġas": 248,
      "Ġbig": 249,
      "Ġhappy": 250,
      "riend": 251,
      "Ġfriend": 252,
      "Ġbut": 253,
      "Ġan": 254,
      "Ġsaw": 255,
      "Ġnot": 256,
      "One": 257,
      "ĠM": 258,
      "ra": 259,
      "Once": 260,
      "ide": 261,
      "'t": 262,
      "ved": 263,
      "ry": 264,
      "Ġloo": 265,
      ".\"": 266,
      "!\"": 267,
      "ĠIt": 268,
      "ug": 269,
      "ec": 270,
      "Ġis": 271,
      "ter": 272,
      "ake": 273,
      "ore": 274,
      "Ġwere": 275,
      "irl": 276,
      "Ġlo": 277,
      "Ġbo": 278,
      "Ġupon": 279,
      "Ġgirl": 280,
      "Ġhim": 281,
      "ard": 282,
      "ĠTim": 283,
      "Ġj": 284,
      "Ġout": 285,
      "Ġgo": 286,
      "Ġtoo": 287,
      "Ġwanted": 288,
      "Ġsmil": 289,
      "fu": 290,
      "Ġse": 291,
      "ĠJ": 292,
      "Ġsp": 293,
      "hen": 294,
      "Ġex": 295,
      "Ġcould": 296,
      "ill": 297,
      "way": 298,
      "ind": 299,
      "ur": 300,
      "Ġat": 301,
      "ain": 302,
      "round": 303,
      "Ġwent": 304,
      "art": 305,
      "hed": 306,
      "ĠA": 307,
      "ic": 308,
      "Ġthem": 309,
      "hing": 310,
      "rom": 311,
      "Ġnam": 312,
      "Ġdid": 313,
      "um": 314,
      "ful": 315,
      "lp": 316,
      "Ġtheir": 317,
      "Ã¢": 318,
      "âĤ": 319,
      "âĤ¬": 320,
      "Ġall": 321,
      "ight": 322,
      "Ġfriends": 323,
      "Ġhelp": 324,
      "Ġare": 325,
      "one": 326,
      "?\"": 327,
      "Ġhave": 328,
      "Ġcan": 329,
      "Ġsmiled": 330,
      "Ġkn": 331,
      "Ġback": 332,
      "ood": 333,
      "ark": 334,
      "oug": 335,
      "Ġcl": 336,
      "Ġasked": 337,
      "are": 338,
      "Ġnamed": 339,
      "Ġfun": 340,
      "Ġaround": 341,
      "elt": 342,
      "op": 343,
      "Ġle": 344,
      "side": 345,
      "Ġloved": 346,
      "ick": 347,
      "Ġno": 348,
      "ĠOne": 349,
      "Ġlooked": 350,
      "Ġal": 351,
      "Ġfelt": 352,
      "omet": 353,
      "get": 354,
      "Ġsc": 355,
      "ame": 356,
      "Ġboy": 357,
      "Ġfe": 358,
      "ĠTimmy": 359,
      "Ġstart": 360,
      "ure": 361,
      "ĠBen": 362,
      "ird": 363,
      "dd": 364,
      "Ġman": 365,
      "Ġwould": 366,
      "ice": 367,
      "Ġsomet": 368,
      "ro": 369,
      "as": 370,
      "Ġsee": 371,
      "ĠTom": 372,
      "Ġme": 373,
      "Ġlike": 374,
      "You": 375,
      "Ġro": 376,
      "ree": 377,
      "king": 378,
      "Ġtoy": 379,
      "ong": 380,
      "gether": 381,
      "Ġwor": 382,
      "Ġbird": 383,
      "Ġsome": 384,
      "ĠW": 385,
      "Ġstarted": 386,
      "Ġag": 387,
      "ag": 388,
      "ited": 389,
      "Ġtogether": 390,
      "Ġsomething": 391,
      "Ġwhat": 392,
      "ie": 393,
      "Ġexc": 394,
      "ings": 395,
      "ade": 396,
      "own": 397,
      "Ġfa": 398,
      "Ġaway": 399,
      "ared": 400,
      ",\"": 401,
      "oud": 402,
      "Ġran": 403,
      "ble": 404,
      "pped": 405,
      "Ġsay": 406,
      "if": 407,
      "hat": 408,
      "Ġpark": 409,
      "Ġmake": 410,
      "pl": 411,
      "Ġwhen": 412,
      "Ġmade": 413,
      "Ġthen": 414,
      "Ġfrom": 415,
      "Ġco": 416,
      "Ġmu": 417,
      "ĠBut": 418,
      "Ġbr": 419,
      "Ġot": 420,
      "Ġla": 421,
      "Ġcar": 422,
      "Ġsad": 423,
      "Ġhome": 424,
      "ally": 425,
      "Ġnew": 426,
      "Ġagain": 427,
      "Ġwal": 428,
      "Ġfound": 429,
      "ell": 430,
      "Ġother": 431,
      "Ġexcited": 432,
      "ought": 433,
      "ep": 434,
      "qu": 435,
      "Ġput": 436,
      "est": 437,
      "ss": 438,
      "Ġwho": 439,
      "Ġfl": 440,
      "ĠE": 441,
      "Ġget": 442,
      "Ġplaying": 443,
      "Ġdec": 444,
      "Lily": 445,
      "Ġhug": 446,
      "Ġch": 447,
      "ous": 448,
      "ried": 449,
      "Ġpr": 450,
      "Ġgood": 451,
      "Ġv": 452,
      "ĠYou": 453,
      "ach": 454,
      "uck": 455,
      "Ġsw": 456,
      "ny": 457,
      "Ġgot": 458,
      "udd": 459,
      "Ġthings": 460,
      "Ġevery": 461,
      "ided": 462,
      "ave": 463,
      "ĠD": 464,
      "ook": 465,
      "Ġcame": 466,
      "Ġdecided": 467,
      "ust": 468,
      "Ġone": 469,
      "us": 470,
      "ouse": 471,
      "Ġdown": 472,
      "Ġthan": 473,
      "Ġbec": 474,
      "Ġtree": 475,
      "Ġscared": 476,
      "Ġbl": 477,
      "Ġfeel": 478,
      "ways": 479,
      "Ġfind": 480,
      "Ġcare": 481,
      "bb": 482,
      "Ġliked": 483,
      "Ġdad": 484,
      "Ġdog": 485,
      "Ġalways": 486,
      "Ġab": 487,
      "ax": 488,
      "Ġke": 489,
      "Ġpo": 490,
      "ant": 491,
      "Ġold": 492,
      "ist": 493,
      "ĠF": 494,
      "nder": 495,
      "eci": 496,
      "Ġthought": 497,
      "udden": 498,
      "ue": 499,
      "ara": 500,
      "Ġdidn": 501,
      "Ġyour": 502,
      "Ġlot": 503,
      "Ġta": 504,
      "Ġkne": 505,
      "our": 506,
      "Ġgra": 507,
      "Ġabout": 508,
      "Ġint": 509,
      "ched": 510,
      "fe": 511,
      "ite": 512,
      "uddenly": 513,
      "Ġlook": 514,
      "Ġoutside": 515,
      "Ġtook": 516,
      "ecial": 517,
      "Ġspecial": 518,
      "Ġho": 519,
      "ers": 520,
      "Ġsays": 521,
      "ise": 522,
      "ess": 523,
      "Ġlaug": 524,
      "ened": 525,
      "ned": 526,
      "Ġmy": 527,
      "Ġmommy": 528,
      "Ġtake": 529,
      "ged": 530,
      "Ġknew": 531,
      "ĠMom": 532,
      "reat": 533,
      "ap": 534,
      "Ġpe": 535,
      "fter": 536,
      "Ġmore": 537,
      "Ġknow": 538,
      "Ġany": 539,
      "ret": 540,
      "Ġlear": 541,
      "Ġball": 542,
      "Ġtr": 543,
      "Ġtoys": 544,
      "ob": 545,
      "Ġcat": 546,
      "ive": 547,
      "Ġtw": 548,
      "ven": 549,
      "ma": 550,
      "na": 551,
      "Ġsun": 552,
      "Ġhow": 553,
      "Ġexpl": 554,
      "Ġen": 555,
      "Ġcouldn": 556,
      "Ġwill": 557,
      "Ġsk": 558,
      "Åĵ": 559,
      "They": 560,
      "Ġinto": 561,
      "Ġmuch": 562,
      "Ġqu": 563,
      "Ġshow": 564,
      "Ġmo": 565,
      "ĠMax": 566,
      "ĠSam": 567,
      "and": 568,
      "Ġclo": 569,
      "au": 570,
      "Ġnever": 571,
      "Ġproud": 572,
      "ge": 573,
      "Ġtold": 574,
      "Ġthis": 575,
      "ĠEvery": 576,
      "Ġif": 577,
      "Ġinside": 578,
      "Ġheard": 579,
      "Ġover": 580,
      "ish": 581,
      "ion": 582,
      "uc": 583,
      "Ġhouse": 584,
      "Ġop": 585,
      "Ġhand": 586,
      "ĠJo": 587,
      "ank": 588,
      "nna": 589,
      "other": 590,
      "Ġgave": 591,
      "But": 592,
      "ĠÃ¢": 593,
      "Ġpick": 594,
      "Ġroom": 595,
      "ort": 596,
      "ace": 597,
      "oll": 598,
      "Ġsl": 599,
      "ĠJack": 600,
      "Ġstr": 601,
      "Ġtried": 602,
      "Ġor": 603,
      "by": 604,
      "ough": 605,
      "dy": 606,
      "Ġjust": 607,
      "ump": 608,
      "ty": 609,
      "ia": 610,
      "Ġsmall": 611,
      "ause": 612,
      "Ġwater": 613,
      "Ġrun": 614,
      "Ġplayed": 615,
      "Ġwat": 616,
      "ink": 617,
      "ate": 618,
      "oth": 619,
      "here": 620,
      "Ġcall": 621,
      "Ġbu": 622,
      "hn": 623,
      "orry": 624,
      "Ġcom": 625,
      "etter": 626,
      "iz": 627,
      "ving": 628,
      "Ġhugged": 629,
      "ild": 630,
      "ile": 631,
      "sed": 632,
      "sel": 633,
      "'m": 634,
      "Ġbea": 635,
      "Ġeat": 636,
      "Ġoff": 637,
      "ning": 638,
      "Ġbecause": 639,
      "Ġtry": 640,
      "ear": 641,
      "Ġneed": 642,
      "vent": 643,
      "Ġlong": 644,
      "Ġsorry": 645,
      "Ġad": 646,
      "ĠSara": 647,
      "Ġunt": 648,
      "Ġflow": 649,
      "Ġbear": 650,
      "Mom": 651,
      "Ġnice": 652,
      "Ġthanked": 653,
      "Ġbeaut": 654,
      "Ġuntil": 655,
      "ady": 656,
      "Ġpret": 657,
      "ine": 658,
      "Ġlaughed": 659,
      "ĠSo": 660,
      "Tom": 661,
      "Yes": 662,
      "oy": 663,
      "Ġbox": 664,
      "Ġeach": 665,
      "em": 666,
      "imal": 667,
      "pt": 668,
      "Ġanimal": 669,
      "Ġeven": 670,
      "It": 671,
      "Ġim": 672,
      "ft": 673,
      "Ġbest": 674,
      "Ġend": 675,
      "âĤ¬â": 676,
      "ĠHer": 677,
      "Ġsur": 678,
      "Ġby": 679,
      "self": 680,
      "Ġgr": 681,
      "Ġgard": 682,
      "Ġmany": 683,
      "Ġbeauti": 684,
      "Ġgarden": 685,
      "Ġdon": 686,
      "ak": 687,
      "Ġbeautiful": 688,
      "Ġbetter": 689,
      "Ġlots": 690,
      "He": 691,
      "Ġra": 692,
      "Ġkind": 693,
      "Th": 694,
      "ered": 695,
      "Ġdre": 696,
      "ucy": 697,
      "lew": 698,
      "Ġway": 699,
      "ĠC": 700,
      "Ġfi": 701,
      "ĠHis": 702,
      "Ġtwo": 703,
      "Ġcalled": 704,
      "Ġsky": 705,
      "Ġlived": 706,
      "gry": 707,
      "Ġbra": 708,
      "Ħ¢": 709,
      "âĤ¬âĦ¢": 710,
      "iny": 711,
      "ane": 712,
      "Ġlearned": 713,
      "Ġche": 714,
      "urt": 715,
      "ull": 716,
      "ct": 717,
      "ĠWe": 718,
      "Ġwo": 719,
      "Ġsn": 720,
      "Ġcle": 721,
      "ect": 722,
      "Ġfast": 723,
      "Ġjump": 724,
      "Ġcome": 725,
      "ĠFrom": 726,
      "Ġboth": 727,
      "ase": 728,
      "Ġcareful": 729,
      "pr": 730,
      "Ġar": 731,
      "When": 732,
      "Ġstill": 733,
      "Ġhard": 734,
      "ĠAnna": 735,
      "Let": 736,
      "Ġfam": 737,
      "Ġcu": 738,
      "Ġgl": 739,
      "Ġrem": 740,
      "ĠAnd": 741,
      "What": 742,
      "Ġstay": 743,
      "ied": 744,
      "igh": 745,
      "ĠWhen": 746,
      "Ġexplore": 747,
      "ves": 748,
      "Ġloud": 749,
      "Ġwalked": 750,
      "Ġfin": 751,
      "Ġsurpr": 752,
      "Ġflew": 753,
      "Ġsoon": 754,
      "ĠThen": 755,
      "Ġcol": 756,
      "Ġlove": 757,
      "Ġbrave": 758,
      "Ġsafe": 759,
      "Ġlist": 760,
      "Ġimp": 761,
      "Ġunder": 762,
      "Ġlet": 763,
      "Ġgoing": 764,
      "Ġkept": 765,
      "Ġdan": 766,
      "ool": 767,
      "Ġanimals": 768,
      "Ġits": 769,
      "fore": 770,
      "ised": 771,
      "eet": 772,
      "Tim": 773,
      "Ġsto": 774,
      "ople": 775,
      "wn": 776,
      "ummy": 777,
      "Ġcon": 778,
      "So": 779,
      "led": 780,
      "Ġfly": 781,
      "hes": 782,
      "That": 783,
      "Ġadvent": 784,
      "Ġshould": 785,
      "ĠP": 786,
      "Ġfamily": 787,
      "Ġca": 788,
      "Ġred": 789,
      "ip": 790,
      "Ġnow": 791,
      "ished": 792,
      "ĠLucy": 793,
      "iced": 794,
      "Ġfeeling": 795,
      "dded": 796,
      "Ġbad": 797,
      "Ġfore": 798,
      "Ġpeople": 799,
      "Ġwalking": 800,
      "age": 801,
      "Ġbefore": 802,
      "Ġhurt": 803,
      "Ġdoll": 804,
      "Ġground": 805,
      "ies": 806,
      "Ġkeep": 807,
      "Ġrepl": 808,
      "ĠMia": 809,
      "Ġpic": 810,
      "Ġstor": 811,
      "Ġdoor": 812,
      "Ġwhile": 813,
      "Ġcry": 814,
      "illy": 815,
      "xt": 816,
      "Ġwind": 817,
      "ary": 818,
      "thing": 819,
      "ĠBob": 820,
      "Ġide": 821,
      "Ġopened": 822,
      "Ġshiny": 823,
      "ock": 824,
      "Ġey": 825,
      "ĠSuddenly": 826,
      "Ġvo": 827,
      "No": 828,
      "Ġnoticed": 829,
      "Ġstopped": 830,
      "hy": 831,
      "Ġreplied": 832,
      "Ġdra": 833,
      "Ġpicked": 834,
      "Ġadventure": 835,
      "kay": 836,
      "Ġfar": 837,
      "Ġbook": 838,
      "Ġfr": 839,
      "be": 840,
      "Ġthr": 841,
      "ting": 842,
      "Ġidea": 843,
      "Ġwar": 844,
      "Ġangry": 845,
      "Ġquick": 846,
      "joy": 847,
      "Ġtur": 848,
      "Ġshare": 849,
      "Ġnodded": 850,
      "gan": 851,
      "ger": 852,
      "Ġgreat": 853,
      "Ġnoise": 854,
      "Ġdis": 855,
      "Ġclean": 856,
      "Suddenly": 857,
      "Ġlooking": 858,
      "Ġun": 859,
      "Ġclos": 860,
      "ious": 861,
      "ĠG": 862,
      "emb": 863,
      "ted": 864,
      "Ġreal": 865,
      "Jo": 866,
      "Ġtre": 867,
      "Ġfo": 868,
      "Ġma": 869,
      "Ġsmile": 870,
      "Ġyear": 871,
      "Ġpretty": 872,
      "bbit": 873,
      "Ġdel": 874,
      "Ġbed": 875,
      "maz": 876,
      "Ġenjoy": 877,
      "Ġwonder": 878,
      "Ġamaz": 879,
      "Ġvoice": 880,
      "ĠJohn": 881,
      "Ġnext": 882,
      "uch": 883,
      "Ġwr": 884,
      "les": 885,
      "Ġrock": 886,
      "olly": 887,
      "Ġte": 888,
      "ture": 889,
      "Ġquickly": 890,
      "Ġtruck": 891,
      "Ġpain": 892,
      "ught": 893,
      "Ġrememb": 894,
      "ĠDad": 895,
      "Ġrabbit": 896,
      "imb": 897,
      "Ġwait": 898,
      "ange": 899,
      "Ġeyes": 900,
      "ac": 901,
      "Ġclimb": 902,
      "Ġjo": 903,
      "Ġwalk": 904,
      "Ġcolor": 905,
      "ff": 906,
      "Ġmor": 907,
      "Ġthree": 908,
      "Ġever": 909,
      "Thank": 910,
      "Ġafter": 911,
      "isy": 912,
      "ĠR": 913,
      "able": 914,
      "Ġhands": 915,
      "Ġapp": 916,
      "Ġdif": 917,
      "Ġright": 918,
      "Ġbeing": 919,
      "Ġmum": 920,
      "irst": 921,
      "Ġwork": 922,
      "Ġpicture": 923,
      "Ġeveryone": 924,
      "Ġcloser": 925,
      "Ġbeen": 926,
      "Ġforest": 927,
      "Ġcuri": 928,
      "Ġshout": 929,
      "Ġnear": 930,
      "ĠJane": 931,
      "bye": 932,
      "bbed": 933,
      "Ġbro": 934,
      "Ġde": 935,
      "Ġwatched": 936,
      "Ġflowers": 937,
      "Ġgive": 938,
      "Ġwatch": 939,
      "Ġplace": 940,
      "Ġtra": 941,
      "Ġstrong": 942,
      "Ġac": 943,
      "Ġcurious": 944,
      "oon": 945,
      "Ġbel": 946,
      "Ġmag": 947,
      "Ġfood": 948,
      "Ġgre": 949,
      "so": 950,
      "Ġtal": 951,
      "Ġimport": 952,
      "Ġbright": 953,
      "ollow": 954,
      "Ġfish": 955,
      "Ġyell": 956,
      "Ġtow": 957,
      "Ġchild": 958,
      "Ġbecame": 959,
      "ĠN": 960,
      "Ġsure": 961,
      "Ġalso": 962,
      "ized": 963,
      "aisy": 964,
      "ream": 965,
      "Ġshowed": 966,
      "Ġsqu": 967,
      "Ġgoodbye": 968,
      "day": 969,
      "Ġus": 970,
      "Ġimportant": 971,
      "ng": 972,
      "Ġblue": 973,
      "Ġper": 974,
      "Ġrain": 975,
      "Ġlisten": 976,
      "Ġsound": 977,
      "ired": 978,
      "ĠSue": 979,
      "Ġface": 980,
      "Ġbus": 981,
      "Ġhead": 982,
      "Her": 983,
      "Ġfollow": 984,
      "Ġcont": 985,
      "Ġwhere": 986,
      "fere": 987,
      "lly": 988,
      "Ġuse": 989,
      "Ġhere": 990,
      "ĠAs": 991,
      "aybe": 992,
      "Ġdiffere": 993,
      "ĠSp": 994,
      "Ġbit": 995,
      "She": 996,
      "Ġbegan": 997,
      "Ben": 998,
      "Ġown": 999,
      "Ġthink": 1000,
      "Ġhigh": 1001,
      "Ġworld": 1002,
      "Ġfirst": 1003,
      "lease": 1004,
      "Ġstick": 1005,
      "John": 1006,
      "Ġz": 1007,
      "Ġnight": 1008,
      "Ġboat": 1009,
      "ĠMommy": 1010,
      "leep": 1011,
      "Ġokay": 1012,
      "Ġwarm": 1013,
      "Ġstore": 1014,
      "Ġslide": 1015,
      "Ġgame": 1016,
      "Ġthrough": 1017,
      "kes": 1018,
      "Ġbutter": 1019,
      "Ġdifferent": 1020,
      "ached": 1021,
      "sh": 1022,
      "Ġhopped": 1023,
      "Look": 1024,
      "Ġjumped": 1025,
      "more": 1026,
      "nts": 1027,
      "Ġanymore": 1028,
      "Ġbeh": 1029,
      "Ġrest": 1030,
      "Ġgrabbed": 1031,
      "co": 1032,
      "Ġhop": 1033,
      "Ġdress": 1034,
      "Can": 1035,
      "itc": 1036,
      "Ġcr": 1037,
      "Ġhappened": 1038,
      "Ġreally": 1039,
      "Sara": 1040,
      "Ġhas": 1041,
      "zy": 1042,
      "ster": 1043,
      "Ġflower": 1044,
      "Ġpat": 1045,
      "Ġmean": 1046,
      "Ġopen": 1047,
      "Ġlady": 1048,
      "ĠJoe": 1049,
      "Ġfire": 1050,
      "ner": 1051,
      "Ġforg": 1052,
      "Ġpare": 1053,
      "Ġru": 1054,
      "Ġsand": 1055,
      "Ġmouse": 1056,
      "ĠSarah": 1057,
      "Ġstory": 1058,
      "After": 1059,
      "Ġname": 1060,
      "Ġhelped": 1061,
      "Ġlea": 1062,
      "ĠDaisy": 1063,
      "We": 1064,
      "Ġpu": 1065,
      "Ġyears": 1066,
      "Ġmagic": 1067,
      "Ġpa": 1068,
      "ĠSpot": 1069,
      "Ġwhy": 1070,
      "fully": 1071,
      "Ġshouted": 1072,
      "Ġseen": 1073,
      "Ġtired": 1074,
      "Ġask": 1075,
      "imes": 1076,
      "unny": 1077,
      "Ġfill": 1078,
      "Ġtell": 1079,
      "Ġsweet": 1080,
      "Ġgrass": 1081,
      "\".": 1082,
      "ount": 1083,
      "Ġhaving": 1084,
      "Ġready": 1085,
      "ila": 1086,
      "rog": 1087,
      "Ġfav": 1088,
      "ĠEveryone": 1089,
      "Ġglad": 1090,
      "ĠTh": 1091,
      "Ġfell": 1092,
      "ndma": 1093,
      "ĠLet": 1094,
      "Ġam": 1095,
      "Ġthing": 1096,
      "ient": 1097,
      "Ġonly": 1098,
      "Mommy": 1099,
      "ather": 1100,
      "ass": 1101,
      "Ġflo": 1102,
      "Ġour": 1103,
      "Ġreached": 1104,
      "Jack": 1105,
      "Ġhimself": 1106,
      "Ġdone": 1107,
      "Ġdraw": 1108,
      "Ġwaved": 1109,
      "Ġparents": 1110,
      "th": 1111,
      "Ġ-": 1112,
      "Ġworry": 1113,
      "Ġblock": 1114,
      "Ġbrother": 1115,
      "ued": 1116,
      "Ġbutterf": 1117,
      "As": 1118,
      "Ġwood": 1119,
      "ppy": 1120,
      "Ġbirds": 1121,
      "Ġtast": 1122,
      "ken": 1123,
      "where": 1124,
      "ely": 1125,
      "Ġcoming": 1126,
      "Ġsurprise": 1127,
      "Ġba": 1128,
      "Ġpull": 1129,
      "Ġrunning": 1130,
      "'re": 1131,
      "Ġdr": 1132,
      "ul": 1133,
      "Ġkitc": 1134,
      "Ġkitchen": 1135,
      "Ġsoft": 1136,
      "Ġpond": 1137,
      "Ġbehind": 1138,
      "uff": 1139,
      "Ġste": 1140,
      "Ġprin": 1141,
      "Ġperf": 1142,
      "Don": 1143,
      "Ġkid": 1144,
      "ards": 1145,
      "Ġless": 1146,
      "Ġbug": 1147,
      "ater": 1148,
      "Ġfix": 1149,
      "Ġdin": 1150,
      "Ġmon": 1151,
      "ĠSally": 1152,
      "Ġcreat": 1153,
      "Ġfrog": 1154,
      "iss": 1155,
      "Ġset": 1156,
      "mer": 1157,
      "Ġstop": 1158,
      "Ġrealized": 1159,
      "ĠThat": 1160,
      "Ġworked": 1161,
      "Ġhear": 1162,
      "Ġhappily": 1163,
      "Ġcarefully": 1164,
      "Ġlight": 1165,
      "Timmy": 1166,
      "Ġdelic": 1167,
      "ins": 1168,
      "bo": 1169,
      "Ġused": 1170,
      "Ġwonderful": 1171,
      "Ġbunny": 1172,
      "Ġyummy": 1173,
      "ation": 1174,
      "Ġunderst": 1175,
      "Ġgreen": 1176,
      "Ġfull": 1177,
      "Ġcatch": 1178,
      "Ġarri": 1179,
      "Ġmaking": 1180,
      "Ġdark": 1181,
      "ĠAfter": 1182,
      "Ġbre": 1183,
      "reed": 1184,
      "Ġenjoyed": 1185,
      "Ġprom": 1186,
      "Ġswim": 1187,
      "Ġcontin": 1188,
      "Wow": 1189,
      "Ġsing": 1190,
      "Ġcut": 1191,
      "Ġate": 1192,
      "Ġcake": 1193,
      "Ġduck": 1194,
      "Ġrel": 1195,
      "Ġfunny": 1196,
      "Ġtri": 1197,
      "Ġpus": 1198,
      "Ġsmell": 1199,
      "Ġremembered": 1200,
      "Ġdro": 1201,
      "Ġlearn": 1202,
      "Ġtop": 1203,
      "ren": 1204,
      "Ġfavor": 1205,
      "Ġbutterfly": 1206,
      "Ġdream": 1207,
      "Ġyellow": 1208,
      "Ġpre": 1209,
      "andy": 1210,
      "Ġtrees": 1211,
      "Ġtouch": 1212,
      "Ġhair": 1213,
      "Ġfavorite": 1214,
      "Ġpart": 1215,
      "Ġanything": 1216,
      "Anna": 1217,
      "Ġcook": 1218,
      "Ġlion": 1219,
      "Ġslow": 1220,
      "Ġfinished": 1221,
      "Ġtall": 1222,
      "rel": 1223,
      "Ġherself": 1224,
      "Ġspot": 1225,
      "Ġswing": 1226,
      "Ġfilled": 1227,
      "Ġarrived": 1228,
      "Ġlooks": 1229,
      "air": 1230,
      "Ġsat": 1231,
      "Ġdoes": 1232,
      "Ġmess": 1233,
      "Ġanother": 1234,
      "Ġmove": 1235,
      "ĠIn": 1236,
      "Ġwear": 1237,
      "Ġwrong": 1238,
      "Ġdri": 1239,
      "Ġdoing": 1240,
      "inally": 1241,
      "Ġbag": 1242,
      "Ġsurprised": 1243,
      "Ġkids": 1244,
      "Ġmother": 1245,
      "ama": 1246,
      "Ġcold": 1247,
      "Ġcontinued": 1248,
      "Ġable": 1249,
      "Ġleft": 1250,
      "Ġhole": 1251,
      "aught": 1252,
      "Ġsleep": 1253,
      "Ġbat": 1254,
      "Sam": 1255,
      "Ġpretend": 1256,
      "oney": 1257,
      "Ġbuild": 1258,
      "ign": 1259,
      "ined": 1260,
      "Ġcried": 1261,
      "Ġcool": 1262,
      "Ġfriendly": 1263,
      "Ġwindow": 1264,
      "Ġchildren": 1265,
      "ey": 1266,
      "ĠEm": 1267,
      "Ġsho": 1268,
      "eddy": 1269,
      "Ġhid": 1270,
      "Ġheld": 1271,
      "'ll": 1272,
      "Ġfair": 1273,
      "ĠCan": 1274,
      "Ġmorning": 1275,
      "iver": 1276,
      "Ġbuy": 1277,
      "Ġlesson": 1278,
      "Hell": 1279,
      "Ġlost": 1280,
      "room": 1281,
      "Hello": 1282,
      "Ġmar": 1283,
      "Ġsees": 1284,
      "Ġagreed": 1285,
      "ield": 1286,
      "Ġhill": 1287,
      "ross": 1288,
      "Ġneeded": 1289,
      "ike": 1290,
      "Ġfox": 1291,
      "Ġpap": 1292,
      "Ġenough": 1293,
      "Ġair": 1294,
      "Ġhat": 1295,
      "Ġgent": 1296,
      "av": 1297,
      "ĠDo": 1298,
      "Ġmoment": 1299,
      "asure": 1300,
      "akes": 1301,
      "Ġfollowed": 1302,
      "ens": 1303,
      "Ġgetting": 1304,
      "Ġbow": 1305,
      "ich": 1306,
      "Ġthank": 1307,
      "cess": 1308,
      "Ġclose": 1309,
      "Ġblocks": 1310,
      "Ġmat": 1311,
      "Ġfloor": 1312,
      "His": 1313,
      "Ġtrying": 1314,
      "Ġtight": 1315,
      "stle": 1316,
      "Ġperfect": 1317,
      "Ġyes": 1318,
      "Then": 1319,
      "Ġcra": 1320,
      "oring": 1321,
      "Ġwished": 1322,
      "ĠBenny": 1323,
      "This": 1324,
      "ĠK": 1325,
      "Ġfew": 1326,
      "Ġsomeone": 1327,
      "Ġcars": 1328,
      "Ġstrange": 1329,
      "ĠNow": 1330,
      "ask": 1331,
      "ĠThere": 1332,
      "Ġdelicious": 1333,
      "Ġbrought": 1334,
      "Ġtable": 1335,
      "Ġgone": 1336,
      "Ġread": 1337,
      "Ġhold": 1338,
      "Ġgi": 1339,
      "eter": 1340,
      "Ġamazing": 1341,
      "Ġwoods": 1342,
      "app": 1343,
      "ph": 1344,
      "Ġvis": 1345,
      "ash": 1346,
      "ĠMolly": 1347,
      "Ġlaugh": 1348,
      "Ġbroken": 1349,
      "From": 1350,
      "oup": 1351,
      "Ġbeach": 1352,
      "Ġres": 1353,
      "Ġpaint": 1354,
      "Ġdeep": 1355,
      "Ġforgot": 1356,
      "Ġhun": 1357,
      "Ġfinally": 1358,
      "Ġdinner": 1359,
      "At": 1360,
      "Ġsec": 1361,
      "Ġel": 1362,
      "Ġdanc": 1363,
      "Ġturn": 1364,
      "ds": 1365,
      "Ġice": 1366,
      "Ġmus": 1367,
      "Ġpoin": 1368,
      "Ġarm": 1369,
      "Ġstar": 1370,
      "umb": 1371,
      "ee": 1372,
      "Ġmet": 1373,
      "Ġsail": 1374,
      "enny": 1375,
      "Ġsnow": 1376,
      "Ġplease": 1377,
      "immy": 1378,
      "Ġmight": 1379,
      "Ġcloud": 1380,
      "irrel": 1381,
      "Ġbaby": 1382,
      "Ġunderstand": 1383,
      "ance": 1384,
      "Ġleaves": 1385,
      "ĠWhat": 1386,
      "Ġelse": 1387,
      "Ġjoy": 1388,
      "Ġpet": 1389,
      "red": 1390,
      "Ġseem": 1391,
      "wl": 1392,
      "amp": 1393,
      "Ġsu": 1394,
      "ower": 1395,
      "icy": 1396,
      "Ġsquirrel": 1397,
      "Ġpaper": 1398,
      "ĠJill": 1399,
      "Ġroll": 1400,
      "Ġcastle": 1401,
      "Ġamazed": 1402,
      "Ġsong": 1403,
      "Ġdir": 1404,
      "Ġwasn": 1405,
      "ĠGra": 1406,
      "gon": 1407,
      "ated": 1408,
      "Ġhot": 1409,
      "Ġwhite": 1410,
      "Ġtail": 1411,
      "Ġcomp": 1412,
      "Ġwall": 1413,
      "Ġscary": 1414,
      "ĠTommy": 1415,
      "Ġothers": 1416,
      "Ġeverything": 1417,
      "Ġballoon": 1418,
      "Ġdaddy": 1419,
      "Ġbooks": 1420,
      "ually": 1421,
      "Ġsear": 1422,
      "ĠThis": 1423,
      "Ġstayed": 1424,
      "Ġturned": 1425,
      "Ġjob": 1426,
      "uffy": 1427,
      "Ġfight": 1428,
      "Ġride": 1429,
      "ĠLila": 1430,
      "leph": 1431,
      "Ġflying": 1432,
      "oom": 1433,
      "ze": 1434,
      "anc": 1435,
      "orn": 1436,
      "Ġside": 1437,
      "Ġwon": 1438,
      "Ġbelie": 1439,
      "Ġstepped": 1440,
      "ever": 1441,
      "Ġve": 1442,
      "Ġlake": 1443,
      "Ġspl": 1444,
      "Ġspark": 1445,
      "Ġtalk": 1446,
      "der": 1447,
      "ol": 1448,
      "Ġpromised": 1449,
      "ire": 1450,
      "Ġgu": 1451,
      "ons": 1452,
      "Ġalone": 1453,
      "Ġmusic": 1454,
      "ucky": 1455,
      "os": 1456,
      "Ġmost": 1457,
      "Ġbreak": 1458,
      "Max": 1459,
      "Oh": 1460,
      "Ġpink": 1461,
      "Ġpol": 1462,
      "Ġfur": 1463,
      "Ġcount": 1464,
      "Ġmust": 1465,
      "Ġmoral": 1466,
      "ctor": 1467,
      "Ġvisit": 1468,
      "Ġpi": 1469,
      "Ġcolors": 1470,
      "Ġmagical": 1471,
      "sw": 1472,
      "Ġgrow": 1473,
      "apped": 1474,
      "me": 1475,
      "Ġbigger": 1476,
      "ope": 1477,
      "Ġpictures": 1478,
      "Ġtowards": 1479,
      "Ġfield": 1480,
      "ang": 1481,
      "Ġansw": 1482,
      "ĠTo": 1483,
      "ĠBilly": 1484,
      "ling": 1485,
      "Ġgrandma": 1486,
      "Ġlistened": 1487,
      "Ġclimbed": 1488,
      "Ġhide": 1489,
      "Ġdanger": 1490,
      "Ġbar": 1491,
      "Ġwaited": 1492,
      "Ġlikes": 1493,
      "Ġneigh": 1494,
      "ames": 1495,
      "Ġclot": 1496,
      "Ġneighb": 1497,
      "Ġsometimes": 1498,
      "Ġslowly": 1499,
      "Ġclothes": 1500,
      "bble": 1501,
      "orm": 1502,
      "ott": 1503,
      "avy": 1504,
      "Ġpuppy": 1505,
      "Ġhungry": 1506,
      "Ġshared": 1507,
      "Ġdisapp": 1508,
      "Ġfall": 1509,
      "Ġem": 1510,
      "row": 1511,
      "zz": 1512,
      "pping": 1513,
      "ained": 1514,
      "cket": 1515,
      "elc": 1516,
      "ssed": 1517,
      "Hi": 1518,
      "Why": 1519,
      "lf": 1520,
      "Ġliving": 1521,
      "thy": 1522,
      "key": 1523,
      "Ġplan": 1524,
      "ĠAmy": 1525,
      "set": 1526,
      "ĠAll": 1527,
      "rew": 1528,
      "Ġjoin": 1529,
      "ipped": 1530,
      "Ġwet": 1531,
      "Ġpro": 1532,
      "ugg": 1533,
      "ventually": 1534,
      "Ġfaster": 1535,
      "Ġsecret": 1536,
      "ix": 1537,
      "ries": 1538,
      "Maybe": 1539,
      "weet": 1540,
      "Ġpur": 1541,
      "Ġsilly": 1542,
      "Ġfarmer": 1543,
      "igg": 1544,
      "Ġatt": 1545,
      "bby": 1546,
      "Ġacross": 1547,
      "ment": 1548,
      "Ġmakes": 1549,
      "eared": 1550,
      "fort": 1551,
      "iting": 1552,
      "ence": 1553,
      "less": 1554,
      "lephant": 1555,
      "man": 1556,
      "Ġbee": 1557,
      "Ġleave": 1558,
      "Ġpulled": 1559,
      "Ġbelieve": 1560,
      "Ġelephant": 1561,
      "Ġbuck": 1562,
      "Ġbott": 1563,
      "ister": 1564,
      "Ġworried": 1565,
      "Ġhelping": 1566,
      "Ġblack": 1567,
      "ateful": 1568,
      "Ġheavy": 1569,
      "Ġtreasure": 1570,
      "Ġsuch": 1571,
      "Ġwants": 1572,
      "Ġgrateful": 1573,
      "Ġremember": 1574,
      "Ġsit": 1575,
      "pper": 1576,
      "Ġplant": 1577,
      "ĠFl": 1578,
      "Ġcrying": 1579,
      "br": 1580,
      "Ġexploring": 1581,
      "Ġdance": 1582,
      "Ġtrain": 1583,
      "Ġce": 1584,
      "Ġcream": 1585,
      "Ġcup": 1586,
      "ming": 1587,
      "Bob": 1588,
      "eces": 1589,
      "Ġju": 1590,
      "Ġje": 1591,
      "Ġparty": 1592,
      "Ġpieces": 1593,
      "ract": 1594,
      "ased": 1595,
      "Ġlon": 1596,
      "Ġland": 1597,
      "Ġcolorful": 1598,
      "ose": 1599,
      "Ġhig": 1600,
      "Ġshap": 1601,
      "unch": 1602,
      "Ġdolls": 1603,
      "Ġdangerous": 1604,
      "Ġorange": 1605,
      "Ġlonely": 1606,
      "Ġtreat": 1607,
      "Ġwelc": 1608,
      "Ġclapped": 1609,
      "Ġeverywhere": 1610,
      "Ġstuck": 1611,
      "ber": 1612,
      "iet": 1613,
      "Ġstu": 1614,
      "Ġstand": 1615,
      "Ġwords": 1616,
      "Ġbath": 1617,
      "Ġsuddenly": 1618,
      "Ġrace": 1619,
      "Ġriver": 1620,
      "Ġwithout": 1621,
      "Ġyoung": 1622,
      "Ġblank": 1623,
      "Ġclosed": 1624,
      "Ġgentle": 1625,
      "Ġteddy": 1626,
      "Ġmix": 1627,
      "ney": 1628,
      "Ġsister": 1629,
      "Ġowl": 1630,
      "Ġseemed": 1631,
      "Ġear": 1632,
      "Ġdragon": 1633,
      "Ġbroke": 1634,
      "Finally": 1635,
      "Ġnap": 1636,
      "Ġreach": 1637,
      "ĠDaddy": 1638,
      "Ġbike": 1639,
      "Ġmoney": 1640,
      "Ġhappen": 1641,
      "Ġsmiles": 1642,
      "Ġblanket": 1643,
      "Ġpers": 1644,
      "Ġsame": 1645,
      "Ġdoctor": 1646,
      "Ġsnack": 1647,
      "OK": 1648,
      "Sure": 1649,
      "Ġkite": 1650,
      "Ġcheered": 1651,
      "Ġmonster": 1652,
      "de": 1653,
      "Ġlonger": 1654,
      "aring": 1655,
      "Ġsmo": 1656,
      "Ġacc": 1657,
      "Ġcookies": 1658,
      "Ġhigher": 1659,
      "gg": 1660,
      "Ġheart": 1661,
      "ises": 1662,
      "Ġeating": 1663,
      "ek": 1664,
      "Ġheal": 1665,
      "ored": 1666,
      "Ġshop": 1667,
      "Ġtown": 1668,
      "chool": 1669,
      "Ġquiet": 1670,
      "Ġmin": 1671,
      "ident": 1672,
      "fused": 1673,
      "ieved": 1674,
      "Ġprincess": 1675,
      "Ġbucket": 1676,
      "Ġthough": 1677,
      "Ġteac": 1678,
      "Ġfree": 1679,
      "Ġcandy": 1680,
      "Ġpot": 1681,
      "Ġgif": 1682,
      "Ġkitt": 1683,
      "Ġalong": 1684,
      "Ġdes": 1685,
      "ĠTweet": 1686,
      "ĠMr": 1687,
      "Ġnearby": 1688,
      "Ġtiny": 1689,
      "Ġob": 1690,
      "Ġupset": 1691,
      "Ġwouldn": 1692,
      "ions": 1693,
      "Ġadventures": 1694,
      "hone": 1695,
      "Ġbite": 1696,
      "outh": 1697,
      "Lucy": 1698,
      "ast": 1699,
      "Ġcour": 1700,
      "Ġschool": 1701,
      "Ġtoday": 1702,
      "ĠMaybe": 1703,
      "Ġpocket": 1704,
      "Ġcolour": 1705,
      "Ġdrove": 1706,
      "And": 1707,
      "Ġstre": 1708,
      "Ġplac": 1709,
      "Do": 1710,
      "ier": 1711,
      "Ġhor": 1712,
      "oun": 1713,
      "Ġjour": 1714,
      "Ġbring": 1715,
      "Okay": 1716,
      "ail": 1717,
      "Ġ3": 1718,
      "Ġmouth": 1719,
      "Ġapple": 1720,
      "rot": 1721,
      "uit": 1722,
      "ple": 1723,
      "Ġscream": 1724,
      "Ġshoes": 1725,
      "ho": 1726,
      "sy": 1727,
      "Ġcave": 1728,
      "Ġpack": 1729,
      "Ġexplained": 1730,
      "Ġfairy": 1731,
      "Ġcourse": 1732,
      "ward": 1733,
      "cle": 1734,
      "Ġpie": 1735,
      "Ġcarry": 1736,
      "yard": 1737,
      "Ġcaught": 1738,
      "Ġowner": 1739,
      "asket": 1740,
      "Ġbasket": 1741,
      "Ġpower": 1742,
      "adow": 1743,
      "Ġdirty": 1744,
      "pe": 1745,
      "Ġnaught": 1746,
      "Ġinst": 1747,
      "Ġexp": 1748,
      "Ġbackyard": 1749,
      "Ġcoll": 1750,
      "Ġswam": 1751,
      "Ġrelieved": 1752,
      "Ġteacher": 1753,
      "Ġpen": 1754,
      "vel": 1755,
      "Ġhar": 1756,
      "Ġhoped": 1757,
      "Ġwin": 1758,
      "Ġlife": 1759,
      "ĠJimmy": 1760,
      "ush": 1761,
      "Ġtaking": 1762,
      "Ġcray": 1763,
      "ible": 1764,
      "Ġsea": 1765,
      "ĠEmma": 1766,
      "Ġnaughty": 1767,
      "Ġgames": 1768,
      "Ġvill": 1769,
      "Ġwings": 1770,
      "Ġfruit": 1771,
      "Ġasks": 1772,
      "ead": 1773,
      "Ġthrew": 1774,
      "vered": 1775,
      "ĠMama": 1776,
      "Ġspr": 1777,
      "Ġmoved": 1778,
      "Ġwelcome": 1779,
      "Ġaccident": 1780,
      "Ġsoup": 1781,
      "Ġlunch": 1782,
      "Ġdist": 1783,
      "Ġnothing": 1784,
      "Ġexciting": 1785,
      "Ġlaughing": 1786,
      "Ġbelong": 1787,
      "Ġwoke": 1788,
      "Ġdropped": 1789,
      "ining": 1790,
      "ung": 1791,
      "Ġtrou": 1792,
      "Molly": 1793,
      "Ġes": 1794,
      "Ġlate": 1795,
      "Ġsunny": 1796,
      "Ġbrown": 1797,
      "Ġmyster": 1798,
      "Ġmail": 1799,
      "Ġpath": 1800,
      "Ġbowl": 1801,
      "Ġmark": 1802,
      "ĠMary": 1803,
      "ĠSoon": 1804,
      "Ġpushed": 1805,
      "Ġpres": 1806,
      "Ġstars": 1807,
      "la": 1808,
      "Ġwell": 1809,
      "ocked": 1810,
      "Ġmine": 1811,
      "cked": 1812,
      "Ġtwins": 1813,
      "Ġpast": 1814,
      "tur": 1815,
      "Ġcir": 1816,
      "Ġinc": 1817,
      "Ġbusy": 1818,
      "aughter": 1819,
      "uched": 1820,
      "Ġwise": 1821,
      "Ġtouched": 1822,
      "Ġcor": 1823,
      "Ġforget": 1824,
      "Ġsmart": 1825,
      "Ġswings": 1826,
      "Ġmonkey": 1827,
      "Ġboun": 1828,
      "orrow": 1829,
      "Ġyard": 1830,
      "itting": 1831,
      "ÅĵI": 1832,
      "Ġdelight": 1833,
      "Ġsign": 1834,
      "Ġdry": 1835,
      "Ġshook": 1836,
      "Ġretur": 1837,
      "Ġwhist": 1838,
      "Ġpeace": 1839,
      "Ġneighbor": 1840,
      "Mum": 1841,
      "Ġcou": 1842,
      "irt": 1843,
      "Ġrocks": 1844,
      "bow": 1845,
      "Ġwish": 1846,
      "Ġben": 1847,
      "rest": 1848,
      "Ġgigg": 1849,
      "Ġhuge": 1850,
      "ize": 1851,
      "Ġdisco": 1852,
      "Ġthinks": 1853,
      "Ġrainbow": 1854,
      "Ġdays": 1855,
      "Ġsmiling": 1856,
      "Ġbush": 1857,
      "Ġswimming": 1858,
      "ĠFluffy": 1859,
      "Ġpresent": 1860,
      "erest": 1861,
      "Ġbreat": 1862,
      "read": 1863,
      "Ġsang": 1864,
      "Ġinterest": 1865,
      "ĠSammy": 1866,
      "ountain": 1867,
      "ĠInside": 1868,
      "Ġresp": 1869,
      "ped": 1870,
      "Ġwatching": 1871,
      "Ġsinging": 1872,
      "Ġgift": 1873,
      "Ġjourney": 1874,
      "Later": 1875,
      "Ġpig": 1876,
      "Ġpract": 1877,
      "issed": 1878,
      "Tommy": 1879,
      "shine": 1880,
      "aur": 1881,
      "gged": 1882,
      "Ġeag": 1883,
      "Ġlift": 1884,
      "Ġspoon": 1885,
      "Ġwhe": 1886,
      "epend": 1887,
      "Ġdrink": 1888,
      "Ġcreature": 1889,
      "Ġshapes": 1890,
      "Lila": 1891,
      "lice": 1892,
      "Ġdaughter": 1893,
      "Ġsunshine": 1894,
      "board": 1895,
      "Ġholding": 1896,
      "to": 1897,
      "Ġinv": 1898,
      "izz": 1899,
      "Ġthrow": 1900,
      "Ġtasted": 1901,
      "Ġmiss": 1902,
      "Ġeas": 1903,
      "alm": 1904,
      "Ġbutt": 1905,
      "Ġjar": 1906,
      "Ġtower": 1907,
      "Ġhorse": 1908,
      "Mia": 1909,
      "Ġneck": 1910,
      "Ġwondered": 1911,
      "Ġent": 1912,
      "Ġact": 1913,
      "Ġchair": 1914,
      "Ġpatient": 1915,
      "Ġfit": 1916,
      "Ġletter": 1917,
      "anch": 1918,
      "llo": 1919,
      "Ġleg": 1920,
      "Ġcozy": 1921,
      "Ġbranch": 1922,
      "Ġnoises": 1923,
      "Ġcarrot": 1924,
      "Ġadm": 1925,
      "Ġclouds": 1926,
      "Ġjuice": 1927,
      "Ġsick": 1928,
      "ndp": 1929,
      "itch": 1930,
      "Ġcard": 1931,
      "Ġpass": 1932,
      "ness": 1933,
      "Ġaf": 1934,
      "Ġsitting": 1935,
      "ert": 1936,
      "ont": 1937,
      "Ġround": 1938,
      "Just": 1939,
      "let": 1940,
      "irth": 1941,
      "Ġfront": 1942,
      "Ġstreet": 1943,
      "Ġvillage": 1944,
      "irthday": 1945,
      "Ġbur": 1946,
      "Ġpudd": 1947,
      "Ġonto": 1948,
      "Ġkey": 1949,
      "ĠFinally": 1950,
      "Hey": 1951,
      "Ġforever": 1952,
      "Ġinteresting": 1953,
      "Ġbought": 1954,
      "Ġwhich": 1955,
      "Ġquest": 1956,
      "Ġcute": 1957,
      "Ġdanced": 1958,
      "Ġpointed": 1959,
      "Ġ'": 1960,
      "Ġtom": 1961,
      "Ġthin": 1962,
      "Ġeventually": 1963,
      "amed": 1964,
      "ĠJake": 1965,
      "Ġspin": 1966,
      "Ġspid": 1967,
      "ĠEmily": 1968,
      "ove": 1969,
      "Ġnest": 1970,
      "lebr": 1971,
      "ĠJen": 1972,
      "Ġlovely": 1973,
      "Ġdriver": 1974,
      "Ġturns": 1975,
      "een": 1976,
      "Ġfence": 1977,
      "Ġgather": 1978,
      "Ġspo": 1979,
      "Ġnose": 1980,
      "Ġanyone": 1981,
      "Ġimag": 1982,
      "Ġbuilding": 1983,
      "Ġcelebr": 1984,
      "unt": 1985,
      "Ġcoin": 1986,
      "Ġorgan": 1987,
      "Ġruns": 1988,
      "Ġpurple": 1989,
      "Ġminut": 1990,
      "Come": 1991,
      "blem": 1992,
      "Ġsearch": 1993,
      "Ġcollect": 1994,
      "Ġbal": 1995,
      "Ġbirthday": 1996,
      "ity": 1997,
      "Ġlucky": 1998,
      "idge": 1999,
      "ĠJenny": 2000,
      "Ġproblem": 2001,
      "Ġpiece": 2002,
      "Of": 2003,
      "Ġtear": 2004,
      "Ġsuc": 2005,
      "arge": 2006,
      "Ġsack": 2007,
      "Ġshining": 2008,
      "Ġspotted": 2009,
      "Ġphone": 2010,
      "raid": 2011,
      "Ġmeet": 2012,
      "ĠGrandma": 2013,
      "Ġinstead": 2014,
      "og": 2015,
      "ĠCh": 2016,
      "Ġsounds": 2017,
      "Ġarms": 2018,
      "Ġafraid": 2019,
      "fish": 2020,
      "Ġpool": 2021,
      "Ġspent": 2022,
      "Ġcomes": 2023,
      "ult": 2024,
      "fortable": 2025,
      "Ġaccidentally": 2026,
      "Ġwild": 2027,
      "Ġmist": 2028,
      "oose": 2029,
      "ittens": 2030,
      "ĠWith": 2031,
      "Ġstories": 2032,
      "Ġtasty": 2033,
      "My": 2034,
      "sp": 2035,
      "Ġmad": 2036,
      "Ġwhole": 2037,
      "Ġappeared": 2038,
      "Ġwearing": 2039,
      "Ġkitten": 2040,
      "ndpa": 2041,
      "ced": 2042,
      "nn": 2043,
      "nic": 2044,
      "Ġpicnic": 2045,
      "Ġperson": 2046,
      "ten": 2047,
      "itty": 2048,
      "Ġspicy": 2049,
      "Ġsearched": 2050,
      "Ġanswer": 2051,
      "ond": 2052,
      "Ġlad": 2053,
      "Ġhello": 2054,
      "Ġfold": 2055,
      "ĠThank": 2056,
      "Ġbottle": 2057,
      "Ġplaces": 2058,
      "Ġbench": 2059,
      "Ġtun": 2060,
      "Ġlarge": 2061,
      "ete": 2062,
      "Ġkick": 2063,
      "ours": 2064,
      "Ġrolled": 2065,
      "Ġser": 2066,
      "Ġband": 2067,
      "ord": 2068,
      "Ġcho": 2069,
      "Ġtalked": 2070,
      "Ġsandw": 2071,
      "Good": 2072,
      "Now": 2073,
      "Ġnumb": 2074,
      "Ġsol": 2075,
      "Ġasleep": 2076,
      "Ġbubble": 2077,
      "Ġtrip": 2078,
      "usie": 2079,
      "Ġcorner": 2080,
      "Ġlay": 2081,
      "Ġcow": 2082,
      "Ġsaf": 2083,
      "Ġplane": 2084,
      "Ġsmooth": 2085,
      "Ġladder": 2086,
      "ĠCome": 2087,
      "Ġfarm": 2088,
      "ular": 2089,
      "Ġremind": 2090,
      "Ġtalking": 2091,
      "Ġemb": 2092,
      "old": 2093,
      "obby": 2094,
      "per": 2095,
      "Ġwra": 2096,
      "Ġforward": 2097,
      "Ġshr": 2098,
      "Ġash": 2099,
      "Ġclever": 2100,
      "Ġconfused": 2101,
      "In": 2102,
      "inted": 2103,
      "Ġhit": 2104,
      "Ġshy": 2105,
      "Ġhugs": 2106,
      "col": 2107,
      "Ġhealthy": 2108,
      "ces": 2109,
      "den": 2110,
      "hile": 2111,
      "Ġwhenever": 2112,
      "Ġgrab": 2113,
      "Ġhope": 2114,
      "Ġpuzz": 2115,
      "ancy": 2116,
      "Ġsplas": 2117,
      "ground": 2118,
      "Ġwide": 2119,
      "Ġblew": 2120,
      "Ġhoney": 2121,
      "erly": 2122,
      "arra": 2123,
      "Ġstone": 2124,
      "cean": 2125,
      "Ġfeels": 2126,
      "Ġchest": 2127,
      "Ġbugs": 2128,
      "ĠTogether": 2129,
      "Ġspider": 2130,
      "Ġembarra": 2131,
      "Ġmach": 2132,
      "Ġocean": 2133,
      "Ġval": 2134,
      "Ġgroup": 2135,
      "Ġsmelled": 2136,
      "Every": 2137,
      "Ġpizz": 2138,
      "Ġzoom": 2139,
      "Ġcrayons": 2140,
      "Ġmysterious": 2141,
      "Jane": 2142,
      "Ġsort": 2143,
      "Ġlater": 2144,
      "Ġrec": 2145,
      "Ġapples": 2146,
      "eterm": 2147,
      "Ġign": 2148,
      "Ġdeterm": 2149,
      "Ġmot": 2150,
      "ese": 2151,
      "Ġking": 2152,
      "Ġhelpful": 2153,
      "Ġrob": 2154,
      "Ġprot": 2155,
      "Ġimpre": 2156,
      "Ġdrive": 2157,
      "Ġdisappo": 2158,
      "Ġfig": 2159,
      "Ġcalm": 2160,
      "ĠJust": 2161,
      "Ġfeet": 2162,
      "Ġfeather": 2163,
      "Ġwaiting": 2164,
      "Ġsnowman": 2165,
      "Mama": 2166,
      "Ġlem": 2167,
      "Ġmeadow": 2168,
      "Ġhidden": 2169,
      "Ġgently": 2170,
      "Ġrobot": 2171,
      "Ġnet": 2172,
      "Ġstep": 2173,
      "ometimes": 2174,
      "Ġpush": 2175,
      "Ġmatter": 2176,
      "Ġrespect": 2177,
      "Ġprotect": 2178,
      "cer": 2179,
      "Ġcarried": 2180,
      "Ġstorm": 2181,
      "Ġfoot": 2182,
      "Ġducks": 2183,
      "Ġscreamed": 2184,
      "Ġtrouble": 2185,
      "Ġbreath": 2186,
      "Ġfing": 2187,
      "Ġfancy": 2188,
      "Ġpile": 2189,
      "Ġshirt": 2190,
      "Ġstanding": 2191,
      "Ġpizza": 2192,
      "Ġmed": 2193,
      "Ġmummy": 2194,
      "els": 2195,
      "Ġspread": 2196,
      "?\".": 2197,
      "Ġteach": 2198,
      "Ġyelled": 2199,
      "ĠKitty": 2200,
      "ball": 2201,
      "eb": 2202,
      "hin": 2203,
      "Ġwrite": 2204,
      "Ġdisappointed": 2205,
      "'d": 2206,
      "dle": 2207,
      "Ġpar": 2208,
      "ĠSt": 2209,
      "Ġstood": 2210,
      "ĠJohnny": 2211,
      "Ġfixed": 2212,
      "Ġemp": 2213,
      "St": 2214,
      "Ġegg": 2215,
      "Ġcheer": 2216,
      "Ġcheese": 2217,
      "Ġfinish": 2218,
      "Ġpuddle": 2219,
      "Ġembarrassed": 2220,
      "Ġmotor": 2221,
      "ym": 2222,
      "Ġwave": 2223,
      "Ġple": 2224,
      "owed": 2225,
      "Ġstir": 2226,
      "getable": 2227,
      "Ġseek": 2228,
      "Ġtightly": 2229,
      "ungle": 2230,
      "Ġempty": 2231,
      "aking": 2232,
      "vous": 2233,
      "Ġmil": 2234,
      "Ġgas": 2235,
      "ĠSome": 2236,
      "Ġjungle": 2237,
      "Ġstring": 2238,
      "Sarah": 2239,
      "Ġdancing": 2240,
      "Ġvegetable": 2241,
      "Ġfurry": 2242,
      "Ġdi": 2243,
      "Ġmind": 2244,
      "Ġbell": 2245,
      "Ġlast": 2246,
      "ĠEverywhere": 2247,
      "Ġgrew": 2248,
      "airs": 2249,
      "Ġsleepy": 2250,
      "Jimmy": 2251,
      "gly": 2252,
      "ĠTV": 2253,
      "isa": 2254,
      "lex": 2255,
      "Ġugly": 2256,
      "Ġspe": 2257,
      "ife": 2258,
      "Mummy": 2259,
      "arp": 2260,
      "Ġnut": 2261,
      "ors": 2262,
      "Ġsharp": 2263,
      "ĠRe": 2264,
      "Ġpowerful": 2265,
      "gy": 2266,
      "Ġber": 2267,
      "Ġoven": 2268,
      "Ġkiss": 2269,
      "Ġhopping": 2270,
      "Ġwash": 2271,
      "Ġner": 2272,
      "ĠEven": 2273,
      "Ġbecome": 2274,
      "Ġtakes": 2275,
      "Where": 2276,
      "ale": 2277,
      "Ġplayground": 2278,
      "ĠPete": 2279,
      "cap": 2280,
      "mo": 2281,
      "up": 2282,
      "Ġhon": 2283,
      "Ġhours": 2284,
      "ats": 2285,
      "Ġrope": 2286,
      "Ġchick": 2287,
      "Ġblow": 2288,
      "Ġsnake": 2289,
      "Ġpeaceful": 2290,
      "Ġnervous": 2291,
      "Ġtid": 2292,
      "oman": 2293,
      "ĠBe": 2294,
      "Ġmud": 2295,
      "Ġjumping": 2296,
      "Ġpromise": 2297,
      "Ġpretended": 2298,
      "Ġcirc": 2299,
      "Ġcouch": 2300,
      "Ġwoman": 2301,
      "Ġgar": 2302,
      "Ġexam": 2303,
      "Soon": 2304,
      "Ġrude": 2305,
      "Ġdetermined": 2306,
      "ĠO": 2307,
      "iddle": 2308,
      "Ġshell": 2309,
      "Ġdecor": 2310,
      "Ġrocket": 2311,
      "box": 2312,
      "Ġhiding": 2313,
      "Ġwhistle": 2314,
      "Ġap": 2315,
      "Ġcoo": 2316,
      "Ġmountain": 2317,
      "Ġpill": 2318,
      "Ġskipped": 2319,
      "Ġanswered": 2320,
      "Ġsuccess": 2321,
      "Ġmilk": 2322,
      "Dad": 2323,
      "ual": 2324,
      "ĠOn": 2325,
      "Ġasking": 2326,
      "Please": 2327,
      "ying": 2328,
      "Ġsel": 2329,
      "Ġpri": 2330,
      "ĠSusie": 2331,
      "Ġstra": 2332,
      "als": 2333,
      "Ġloves": 2334,
      "Ġslid": 2335,
      "izzy": 2336,
      "ĠPeter": 2337,
      "Ġbedroom": 2338,
      "Ġtaste": 2339,
      "Ġsupp": 2340,
      "Ġreturned": 2341,
      "Ġmachine": 2342,
      "Ġlemon": 2343,
      "Ġwip": 2344,
      "Ġmic": 2345,
      "anut": 2346,
      "Ġstret": 2347,
      "cept": 2348,
      "Ġvase": 2349,
      "Ġsongs": 2350,
      "Ġjew": 2351,
      "ipper": 2352,
      "Ġthese": 2353,
      "Ġgen": 2354,
      "ighed": 2355,
      "Ġreg": 2356,
      "ĠMittens": 2357,
      "Ġroad": 2358,
      "Ġforgive": 2359,
      "Ġmarble": 2360,
      "Ġdirt": 2361,
      "Ġsparkly": 2362,
      "Ġminutes": 2363,
      "Ġhur": 2364,
      "Ġexcite": 2365,
      "Ġtrust": 2366,
      "Ġcreative": 2367,
      "Ġmatch": 2368,
      "Ġgiant": 2369,
      "Ġbalance": 2370,
      "most": 2371,
      "aw": 2372,
      "Ġsour": 2373,
      "Ġcap": 2374,
      "Ġpin": 2375,
      "ato": 2376,
      "ĠSometimes": 2377,
      "ĠMum": 2378,
      "Ġfear": 2379,
      "Ġchew": 2380,
      "Ġfighting": 2381,
      "Ġplants": 2382,
      "Ġgarage": 2383,
      "ian": 2384,
      "Ġhum": 2385,
      "Ġfather": 2386,
      "Ġmiddle": 2387,
      "Ġpop": 2388,
      "Ġweak": 2389,
      "ĠMummy": 2390,
      "Ġknocked": 2391,
      "Ġalmost": 2392,
      "Joe": 2393,
      "Ġpaw": 2394,
      "Ġpolice": 2395,
      "Ġeasy": 2396,
      "Ġtomorrow": 2397,
      "Ġexcitement": 2398,
      "Ġtest": 2399,
      "Ġdepend": 2400,
      "Ġpas": 2401,
      "ones": 2402,
      "Ġflut": 2403,
      "umpy": 2404,
      "Ġpainting": 2405,
      "Ġsticks": 2406,
      "Ġgives": 2407,
      "Ġpolite": 2408,
      "Ġpassed": 2409,
      "cks": 2410,
      "Ġlive": 2411,
      "ĠJim": 2412,
      "osaur": 2413,
      "Ġbarked": 2414,
      "Ġsnacks": 2415,
      "Ġcolourful": 2416,
      "Ġselfish": 2417,
      "To": 2418,
      "light": 2419,
      "Ġsave": 2420,
      "ĠLe": 2421,
      "Ġroar": 2422,
      "Ġchased": 2423,
      "ushed": 2424,
      "Ġgray": 2425,
      "Ġtreats": 2426,
      "pack": 2427,
      "port": 2428,
      "Ġban": 2429,
      "Ġcross": 2430,
      "Ġwhis": 2431,
      "Ġknee": 2432,
      "Ġknowing": 2433,
      "Ġtrue": 2434,
      "Ġdrew": 2435,
      "Ġjoke": 2436,
      "Ġbread": 2437,
      "Ġgathered": 2438,
      "Ġfigure": 2439,
      "Jill": 2440,
      "Ġcart": 2441,
      "Ġcand": 2442,
      "Ġhel": 2443,
      "Ġsal": 2444,
      "Ġshore": 2445,
      "illi": 2446,
      "Ġmeant": 2447,
      "Ġfaces": 2448,
      "Ġyourself": 2449,
      "Ġcookie": 2450,
      "Ġashamed": 2451,
      "ating": 2452,
      "There": 2453,
      "Ġseat": 2454,
      "Ġsailed": 2455,
      "Ġsplash": 2456,
      "Ġdisappeared": 2457,
      "Ġlanded": 2458,
      "Ġneckl": 2459,
      "Be": 2460,
      "Sally": 2461,
      "Ġpour": 2462,
      "Ġweek": 2463,
      "ĠAnn": 2464,
      "aser": 2465,
      "Ġflag": 2466,
      "Ġtaken": 2467,
      "Ġdinosaur": 2468,
      "Ġhappening": 2469,
      "Ġspray": 2470,
      "Ġgiggled": 2471,
      "fl": 2472,
      "ina": 2473,
      "Ġwander": 2474,
      "Ġoften": 2475,
      "itter": 2476,
      "Ġsharing": 2477,
      "Ġlead": 2478,
      "elly": 2479,
      "Ġunderstood": 2480,
      "Ġtidy": 2481,
      "Ġgener": 2482,
      "Ġdependable": 2483,
      "cy": 2484,
      "Ġtag": 2485,
      "Ġant": 2486,
      "ĠTheir": 2487,
      "Ġshelf": 2488,
      "usual": 2489,
      "Ġpeanut": 2490,
      "ÅĵLet": 2491,
      "Ġbull": 2492,
      "Ġunusual": 2493,
      "Ġtea": 2494,
      "Ġthankful": 2495,
      "ĠTweety": 2496,
      "Ġtears": 2497,
      "ital": 2498,
      "Ġlit": 2499,
      "Ġok": 2500,
      "ĠHow": 2501,
      "alous": 2502,
      "Ġfeed": 2503,
      "Ġdrawing": 2504,
      "Ġjealous": 2505,
      "Ġsandwich": 2506,
      "Ġed": 2507,
      "Ġwore": 2508,
      "ination": 2509,
      "Ġbark": 2510,
      "arl": 2511,
      "Ġhang": 2512,
      "Ġlog": 2513,
      "ured": 2514,
      "Ġclown": 2515,
      "Ġmeasure": 2516,
      "Ġfluffy": 2517,
      "Ġhosp": 2518,
      "ĠGo": 2519,
      "Ġhears": 2520,
      "Ġmarch": 2521,
      "ensive": 2522,
      "Ġexpensive": 2523,
      "Ġmarket": 2524,
      "Ġbutton": 2525,
      "Ġpuzzle": 2526,
      "cape": 2527,
      "Ġgenerous": 2528,
      "Ġhospital": 2529,
      "ub": 2530,
      "Ġter": 2531,
      "Ġteet": 2532,
      "Ġav": 2533,
      "Ġsight": 2534,
      "Ġline": 2535,
      "Ġmissed": 2536,
      "Ġpir": 2537,
      "Ġlock": 2538,
      "Ġboard": 2539,
      "Ġmanag": 2540,
      "Ġcoat": 2541,
      "Ġpoor": 2542,
      "Ġtaught": 2543,
      "Ġqueen": 2544,
      "Ġrealised": 2545,
      "Ġteeth": 2546,
      "oe": 2547,
      "uce": 2548,
      "imed": 2549,
      "Ġthick": 2550,
      "Ġrid": 2551,
      "Ġanc": 2552,
      "ĠAt": 2553,
      "Ġclass": 2554,
      "Ġtwirl": 2555,
      "ÅĵThat": 2556,
      "Sue": 2557,
      "Ġadd": 2558,
      "Ġpenny": 2559,
      "ana": 2560,
      "orge": 2561,
      "ĠLittle": 2562,
      "Ġang": 2563,
      "Ġgoes": 2564,
      "Ġgold": 2565,
      "Ġclay": 2566,
      "Ġswan": 2567,
      "ĠDon": 2568,
      "ecially": 2569,
      "Ġmod": 2570,
      "Ġzoo": 2571,
      "Ġcrack": 2572,
      "Ġperform": 2573,
      "Ġsmelly": 2574,
      "Ġincred": 2575,
      "Ġnecklace": 2576,
      "Ġancient": 2577,
      "pecially": 2578,
      "Ġwis": 2579,
      "Ġbone": 2580,
      "Ġcop": 2581,
      "ĠLisa": 2582,
      "Ġtool": 2583,
      "Ġbrush": 2584,
      "ĠEnd": 2585,
      "Ġmoon": 2586,
      "Ġcalling": 2587,
      "ĠMrs": 2588,
      "Ġespecially": 2589,
      "Billy": 2590,
      "Gra": 2591,
      "iness": 2592,
      "reen": 2593,
      "era": 2594,
      "Ġmaybe": 2595,
      "lla": 2596,
      "Ġcovered": 2597,
      "ÅĵIt": 2598,
      "Ġdeer": 2599,
      "Ġpointing": 2600,
      "Ġpleased": 2601,
      "illiant": 2602,
      "Ġterri": 2603,
      "Em": 2604,
      "pill": 2605,
      "Ġtick": 2606,
      "Ġtank": 2607,
      "erpill": 2608,
      "unk": 2609,
      "ĠBobby": 2610,
      "Ġknight": 2611,
      "Ġbrilliant": 2612,
      "Ġcaterpill": 2613,
      "Ġmoving": 2614,
      "ctus": 2615,
      "Ġfrown": 2616,
      "Ġcontent": 2617,
      "Ġdrum": 2618,
      "Stop": 2619,
      "Ġcaterpillar": 2620,
      "Ġtent": 2621,
      "Ġsaved": 2622,
      "Ġgoat": 2623,
      "Ġscr": 2624,
      "Ġworm": 2625,
      "Ġzip": 2626,
      "Ġmessy": 2627,
      "Ġdiscovered": 2628,
      "Ġchocol": 2629,
      "Ġvegetables": 2630,
      "ches": 2631,
      "eorge": 2632,
      "ipp": 2633,
      "ject": 2634,
      "land": 2635,
      "rated": 2636,
      "Ġwaves": 2637,
      "Ġstuff": 2638,
      "Ġring": 2639,
      "Ġboss": 2640,
      "Ġscar": 2641,
      "Ġworking": 2642,
      "ĠWhy": 2643,
      "ÅĵYes": 2644,
      "Ġcactus": 2645,
      "Ġaccept": 2646,
      "Ġsweetie": 2647,
      "Ġbathroom": 2648,
      "Ġharm": 2649,
      "Ġwheel": 2650,
      "Who": 2651,
      "Ġsil": 2652,
      "Ġwagged": 2653,
      "Ġlying": 2654,
      "Ġdest": 2655,
      "Ġmir": 2656,
      "Ġsold": 2657,
      "Ġship": 2658,
      "ĠDucky": 2659,
      "Ġtape": 2660,
      "oby": 2661,
      "Ġglue": 2662,
      "ĠPlease": 2663,
      "Ġtowel": 2664,
      "Ġprint": 2665,
      "Ġrelax": 2666,
      "Ġdistance": 2667,
      "Ġdelighted": 2668,
      "Ġeager": 2669,
      "Ġquestions": 2670,
      "Ġspoil": 2671,
      "ĠLeo": 2672,
      "Amy": 2673,
      "Well": 2674,
      "aby": 2675,
      "fic": 2676,
      "kin": 2677,
      "ror": 2678,
      "edient": 2679,
      "Ġboring": 2680,
      "Ġcher": 2681,
      "ano": 2682,
      "ony": 2683,
      "Ġstones": 2684,
      "Ġrough": 2685,
      "Ġweal": 2686,
      "ĠAlice": 2687,
      "Ġcloth": 2688,
      "Ġexcla": 2689,
      "Ġlazy": 2690,
      "Ġcarp": 2691,
      "ella": 2692,
      "Ġexcitedly": 2693,
      "que": 2694,
      "ested": 2695,
      "Ġdogs": 2696,
      "Ġeye": 2697,
      "ache": 2698,
      "Ġbushes": 2699,
      "Ġmighty": 2700,
      "Ġcircles": 2701,
      "Ġincredible": 2702,
      "Ġexclaimed": 2703,
      "Ġfake": 2704,
      "Ġcage": 2705,
      "iger": 2706,
      "ief": 2707,
      "ÅĵWhat": 2708,
      "Ġpicking": 2709,
      "Ġord": 2710,
      "Ġcomfortable": 2711,
      "Ġgrumpy": 2712,
      "Ġcheck": 2713,
      "Ġwalks": 2714,
      "Ġsquare": 2715,
      "Ġsplashed": 2716,
      "Ġmedic": 2717,
      "Ġjewel": 2718,
      "Ġchocolate": 2719,
      "Ġcri": 2720,
      "Ġdish": 2721,
      "arn": 2722,
      "ately": 2723,
      "ots": 2724,
      "Ġyarn": 2725,
      "keep": 2726,
      "ĠMar": 2727,
      "!\".": 2728,
      "ustrated": 2729,
      "Ġenvel": 2730,
      "ĠCl": 2731,
      "Ġadventur": 2732,
      "Ġdiffic": 2733,
      "Ġstronger": 2734,
      "Ġdrank": 2735,
      "Ġobedient": 2736,
      "Ġedge": 2737,
      "Ġmedicine": 2738,
      "Ġfil": 2739,
      "Ġpil": 2740,
      "ork": 2741,
      "Ġplate": 2742,
      "Ġfork": 2743,
      "asing": 2744,
      "Ġlaw": 2745,
      "Ġpray": 2746,
      "ĠFr": 2747,
      "Ġpebble": 2748,
      "Ġenjoying": 2749,
      "Ġjog": 2750,
      "Ġruined": 2751,
      "Ġleaf": 2752,
      "Ġwalls": 2753,
      "Ġpacked": 2754,
      "Ġmanaged": 2755,
      "keeper": 2756,
      "Ġadventurous": 2757,
      "loo": 2758,
      "uz": 2759,
      "aroo": 2760,
      "ilt": 2761,
      "Ġones": 2762,
      "Ġjam": 2763,
      "Ġspend": 2764,
      "Ġchange": 2765,
      "selves": 2766,
      "Ġfrustrated": 2767,
      "Ġprince": 2768,
      "Ġprep": 2769,
      "umbled": 2770,
      "ola": 2771,
      "angaroo": 2772,
      "Ġsafely": 2773,
      "Ġimpressed": 2774,
      "Ġcarpet": 2775,
      "Ġdifficult": 2776,
      "Alice": 2777,
      "Ġtask": 2778,
      "Ġbored": 2779,
      "ature": 2780,
      "ory": 2781,
      "Ġkangaroo": 2782,
      "Ġseed": 2783,
      "Ġabove": 2784,
      "Ġgrace": 2785,
      "Ġglow": 2786,
      "Ġbrightly": 2787,
      "Ġusing": 2788,
      "Ġtells": 2789,
      "Ġgiving": 2790,
      "Ġpractice": 2791,
      "Ġorganized": 2792,
      "Ġenvelope": 2793,
      "ti": 2794,
      "und": 2795,
      "ĠZ": 2796,
      "Ġsugg": 2797,
      "Ġgate": 2798,
      "oof": 2799,
      "Ġsoap": 2800,
      "Ġonce": 2801,
      "ĠBr": 2802,
      "Ġdolp": 2803,
      "Ġpainted": 2804,
      "Ġdead": 2805,
      "Ġbelonged": 2806,
      "Ġhonest": 2807,
      "Ġterrible": 2808,
      "Ġmirror": 2809,
      "How": 2810,
      "ha": 2811,
      "uable": 2812,
      "head": 2813,
      "Ġhorn": 2814,
      "ready": 2815,
      "Ġdizzy": 2816,
      "umsy": 2817,
      "Ġalready": 2818,
      "Ġboys": 2819,
      "Ġflash": 2820,
      "Ġclear": 2821,
      "Ġcrown": 2822,
      "Ġcraw": 2823,
      "eez": 2824,
      "Ġbottom": 2825,
      "Ġdesk": 2826,
      "Ġtunn": 2827,
      "ÅĵLetÃ¢": 2828,
      "Ġscarf": 2829,
      "bin": 2830,
      "hip": 2831,
      "ique": 2832,
      "not": 2833,
      "vice": 2834,
      "Ġaw": 2835,
      "Ġrare": 2836,
      "Ġcoins": 2837,
      "Ġgrand": 2838,
      "Ġpee": 2839,
      "Ġtrop": 2840,
      "Ġcabin": 2841,
      "Ġunique": 2842,
      "ĠTweetie": 2843,
      "Ġvaluable": 2844,
      "Ġangel": 2845,
      "Ġwealthy": 2846,
      "Ġcrawled": 2847,
      "Me": 2848,
      "work": 2849,
      "Ġadded": 2850,
      "Ġsighed": 2851,
      "Ġtoug": 2852,
      "Ġgum": 2853,
      "irp": 2854,
      "Their": 2855,
      "ĠBet": 2856,
      "Ġcannot": 2857,
      "Ġnods": 2858,
      "Ġmeal": 2859,
      "iff": 2860,
      "Ġskip": 2861,
      "Ġmov": 2862,
      "Ġcrab": 2863,
      "Ġcrawl": 2864,
      "olog": 2865,
      "wards": 2866,
      "Ġbitter": 2867,
      "ĠSm": 2868,
      "Ġrushed": 2869,
      "Ġweird": 2870,
      "Ġbody": 2871,
      "illed": 2872,
      "ĠAl": 2873,
      "Ġexplored": 2874,
      "Ġskin": 2875,
      "Ġfridge": 2876,
      "Ġturkey": 2877,
      "Ġleaving": 2878,
      "Ġfavour": 2879,
      "Ġdelicate": 2880,
      "Ġdreaming": 2881,
      "Ġneighbour": 2882,
      "Ġstudy": 2883,
      "Ġmistake": 2884,
      "Ġapolog": 2885,
      "Ġpillow": 2886,
      "Ġtrophy": 2887,
      "Ġwagon": 2888,
      "Ġfis": 2889,
      "ĠTeddy": 2890,
      "Ġrefused": 2891,
      "Ġext": 2892,
      "oph": 2893,
      "Ġword": 2894,
      "Ġputs": 2895,
      "Ġballs": 2896,
      "Ġtwist": 2897,
      "iable": 2898,
      "Ġteam": 2899,
      "Ġtrucks": 2900,
      "Ġbald": 2901,
      "Ġdrop": 2902,
      "Ġreliable": 2903,
      "Ġcarrots": 2904,
      "Ġdolphin": 2905,
      "Ġfavourite": 2906,
      "ilty": 2907,
      "anged": 2908,
      "ets": 2909,
      "oop": 2910,
      "Ġrich": 2911,
      "Ġkissed": 2912,
      "Ġbranc": 2913,
      "Ġsmaller": 2914,
      "Ġkinds": 2915,
      "Ġtries": 2916,
      "Ġguilty": 2917,
      "Ġlegs": 2918,
      "Ġbubbles": 2919,
      "Ġbranches": 2920,
      "gu": 2921,
      "mb": 2922,
      "Ġer": 2923,
      "Ġind": 2924,
      "Ġfool": 2925,
      "Ġgun": 2926,
      "etit": 2927,
      "Ġjack": 2928,
      "Ġknife": 2929,
      "Ġchoose": 2930,
      "Ġoffice": 2931,
      "Ġgrown": 2932,
      "Ġcleaned": 2933,
      "Ġbelt": 2934,
      "Ġuseful": 2935,
      "body": 2936,
      "uggled": 2937,
      "Ġsmoke": 2938,
      "Ġreminded": 2939,
      "Ġtough": 2940,
      "az": 2941,
      "dge": 2942,
      "ĠNo": 2943,
      "Ġhunt": 2944,
      "Ġmis": 2945,
      "ĠSandy": 2946,
      "aul": 2947,
      "Ġneeds": 2948,
      "issors": 2949,
      "Ġpoint": 2950,
      "Ġcompetit": 2951,
      "Ġmixed": 2952,
      "Ġnumbers": 2953,
      "Ġsolve": 2954,
      "Ġrecord": 2955,
      "Ġsuccessful": 2956,
      "ĠSmith": 2957,
      "Ġicy": 2958,
      "Ġtimes": 2959,
      "Ġham": 2960,
      "Ġeld": 2961,
      "Ġleop": 2962,
      "Ġnod": 2963,
      "Ġnosy": 2964,
      "ages": 2965,
      "Ġcover": 2966,
      "Ġbridge": 2967,
      "Ġotter": 2968,
      "Ġgets": 2969,
      "Ġcomb": 2970,
      "Ġadvice": 2971,
      "Ġsounded": 2972,
      "ĠGrandpa": 2973,
      "berry": 2974,
      "Ġescape": 2975,
      "Ġthinking": 2976,
      "Ġcelebrate": 2977,
      "Ġsearching": 2978,
      "Ġfinger": 2979,
      "Ġpirate": 2980,
      "Ġextra": 2981,
      "com": 2982,
      "yal": 2983,
      "year": 2984,
      "Ġwand": 2985,
      "Ġrad": 2986,
      "ĠBl": 2987,
      "rage": 2988,
      "uring": 2989,
      "arth": 2990,
      "Ġclumsy": 2991,
      "Ġscissors": 2992,
      "Ġrode": 2993,
      "ĠWhile": 2994,
      "Ġvi": 2995,
      "Ġkindness": 2996,
      "host": 2997,
      "Ġtunnel": 2998,
      "Ġfoolish": 2999,
      "Mary": 3000,
      "Sorry": 3001,
      "See": 3002,
      "Ġcamp": 3003,
      "ator": 3004,
      "Ġstri": 3005,
      "ention": 3006,
      "Ġshake": 3007,
      "Ġshone": 3008,
      "rag": 3009,
      "Ġloyal": 3010,
      "Ġjelly": 3011,
      "ĠDave": 3012,
      "istent": 3013,
      "Ġwolf": 3014,
      "ĠToday": 3015,
      "Ġbuttons": 3016,
      "Ġserious": 3017,
      "Ġcheerful": 3018,
      "Ġstraw": 3019,
      "Ġsuggested": 3020,
      "Are": 3021,
      "lies": 3022,
      "time": 3023,
      "xe": 3024,
      "Ġaxe": 3025,
      "inal": 3026,
      "Ġdull": 3027,
      "ĠToby": 3028,
      "iginal": 3029,
      "Ġstream": 3030,
      "Ġplayful": 3031,
      "Ġhappiness": 3032,
      "ĠMark": 3033,
      "Ġchain": 3034,
      "Ġcareless": 3035,
      "ĠFred": 3036,
      "apa": 3037,
      "Ġsunfl": 3038,
      "Ġproudly": 3039,
      "Ġoriginal": 3040,
      "Ġending": 3041,
      "Ġzipper": 3042,
      "Ġresc": 3043,
      "Ġears": 3044,
      "Ġobject": 3045,
      "Ġwrapped": 3046,
      "Ġfeathers": 3047,
      "Ġbossy": 3048,
      "Ġtiger": 3049,
      "Ġborrow": 3050,
      "Ġhipp": 3051,
      "ress": 3052,
      "Ġmap": 3053,
      "anic": 3054,
      "Ġthose": 3055,
      "ote": 3056,
      "Ġstumbled": 3057,
      "seum": 3058,
      "Ġrep": 3059,
      "Ġspun": 3060,
      "Ġchar": 3061,
      "Ġmole": 3062,
      "Ġoffered": 3063,
      "Ġloudly": 3064,
      "ĠPe": 3065,
      "Ġbounce": 3066,
      "Ġquestion": 3067,
      "Ġberries": 3068,
      "Ġaunt": 3069,
      "Ġcell": 3070,
      "Ġmay": 3071,
      "Ġghost": 3072,
      "Ġrat": 3073,
      "Ġmuseum": 3074,
      "Ġshowing": 3075,
      "Ġbuilt": 3076,
      "Ġbeauty": 3077,
      "âĤ¬âĢ": 3078,
      "Ġfamous": 3079,
      "coa": 3080,
      "Ġattic": 3081,
      "Ġinvited": 3082,
      "Ġnumber": 3083,
      "Ġsorts": 3084,
      "Ġchicken": 3085,
      "Ġregular": 3086,
      "Ġcandle": 3087,
      "Ġpeeked": 3088,
      "Ġeraser": 3089,
      "Ġhippo": 3090,
      "cing": 3091,
      "ipping": 3092,
      "ps": 3093,
      "rop": 3094,
      "Ġfre": 3095,
      "Ġbees": 3096,
      "ĠIf": 3097,
      "elp": 3098,
      "Ġisland": 3099,
      "Ġloll": 3100,
      "Ġclap": 3101,
      "Ġsaying": 3102,
      "Ġcocoa": 3103,
      "Ġlearning": 3104,
      "Ġmoder": 3105,
      "Ġboxes": 3106,
      "Ġglass": 3107,
      "ĠWhenever": 3108,
      "Ġwrote": 3109,
      "Ġsett": 3110,
      "Ġbags": 3111,
      "Ġshoot": 3112,
      "ĠGrace": 3113,
      "Ġharmless": 3114,
      "Ġflashlight": 3115,
      "af": 3116,
      "bled": 3117,
      "cope": 3118,
      "Ġsug": 3119,
      "Ġpay": 3120,
      "Ġgoose": 3121,
      "Ġstairs": 3122,
      "Ġdove": 3123,
      "Ġload": 3124,
      "Ġsell": 3125,
      "Ġlean": 3126,
      "Ġscreen": 3127,
      "Ġchanged": 3128,
      "Ġtrump": 3129,
      "ipop": 3130,
      "Ġwarned": 3131,
      "Ġcloset": 3132,
      "Ġpup": 3133,
      "eeze": 3134,
      "Ġpersistent": 3135,
      "Ġcircle": 3136,
      "Ġlifted": 3137,
      "Ġgasped": 3138,
      "Ġprize": 3139,
      "Ġmovie": 3140,
      "Ġelderly": 3141,
      "Ġlollipop": 3142,
      "Ġmodern": 3143,
      "Re": 3144,
      "Ġsudden": 3145,
      "Ġbake": 3146,
      "render": 3147,
      "Ġpump": 3148,
      "Ġliz": 3149,
      "opus": 3150,
      "Ġscare": 3151,
      "ĠEventually": 3152,
      "Ġdecide": 3153,
      "Ġbloom": 3154,
      "Ġthoughtful": 3155,
      "ctopus": 3156,
      "Ġharder": 3157,
      "Ġfright": 3158,
      "Ġrubbed": 3159,
      "Ġlights": 3160,
      "Ġfruits": 3161,
      "Ġspeed": 3162,
      "Ġbanana": 3163,
      "Help": 3164,
      "gust": 3165,
      "iv": 3166,
      "nown": 3167,
      "Ġpant": 3168,
      "Ġoctopus": 3169,
      "Ġgym": 3170,
      "ates": 3171,
      "irit": 3172,
      "Ġbeet": 3173,
      "Ġroof": 3174,
      "Ġleash": 3175,
      "Ġnoisy": 3176,
      "Ġchose": 3177,
      "ĠDan": 3178,
      "Ġknows": 3179,
      "Ġenc": 3180,
      "Ġslipped": 3181,
      "Ġsurrender": 3182,
      "ĠdonÃ¢": 3183,
      "Ġraced": 3184,
      "Ġfier": 3185,
      "Ġdisgust": 3186,
      "Ġunk": 3187,
      "Ġuncom": 3188,
      "Ġmaze": 3189,
      "Ġpatch": 3190,
      "Ġguess": 3191,
      "Ġadmired": 3192,
      "Ġspoke": 3193,
      "Ġcooking": 3194,
      "Ġleopard": 3195,
      "Ġsunflower": 3196,
      "Ġtrumpet": 3197,
      "Ġtie": 3198,
      "Ġtummy": 3199,
      "Ġahead": 3200,
      "Ġwire": 3201,
      "arian": 3202,
      "orant": 3203,
      "Ġforth": 3204,
      "Ġshut": 3205,
      "Ġwhale": 3206,
      "Ġalert": 3207,
      "Ġlaund": 3208,
      "Ġchase": 3209,
      "Ġhanded": 3210,
      "Ġraven": 3211,
      "Ġways": 3212,
      "Ġrestaur": 3213,
      "Ġtelling": 3214,
      "Ġdoesn": 3215,
      "oomy": 3216,
      "Ġdesign": 3217,
      "Ġpackage": 3218,
      "Ġcarrying": 3219,
      "Ġhurry": 3220,
      "Ġviol": 3221,
      "Ġfresh": 3222,
      "Ġsugar": 3223,
      "Ġfierce": 3224,
      "Ġuncomfortable": 3225,
      "Ġrestaurant": 3226,
      "now": 3227,
      "het": 3228,
      "Ġhive": 3229,
      "ither": 3230,
      "Ġcone": 3231,
      "Ġcries": 3232,
      "Ġwashed": 3233,
      "Ġmask": 3234,
      "Ġyog": 3235,
      "ĠMy": 3236,
      "Ġlocked": 3237,
      "ict": 3238,
      "Ġpost": 3239,
      "Ġenorm": 3240,
      "Ġquite": 3241,
      "Ġhandle": 3242,
      "ĠPolly": 3243,
      "Ġhurts": 3244,
      "ĠRed": 3245,
      "Ġtrains": 3246,
      "Ġmetal": 3247,
      "Ġsailor": 3248,
      "Ġshopkeeper": 3249,
      "Ġkitty": 3250,
      "Ġplaced": 3251,
      "Ġwiped": 3252,
      "Ġjacket": 3253,
      "Ġmiser": 3254,
      "Ġenormous": 3255,
      "Sp": 3256,
      "fa": 3257,
      "fast": 3258,
      "gest": 3259,
      "ĠU": 3260,
      "Ġtire": 3261,
      "Ġcomet": 3262,
      "omed": 3263,
      "Ġoy": 3264,
      "lev": 3265,
      "Ġsock": 3266,
      "Ġbiggest": 3267,
      "Ġlose": 3268,
      "Ġspirit": 3269,
      "Ġmem": 3270,
      "Ġvan": 3271,
      "Ġpepper": 3272,
      "Ġcomfort": 3273,
      "Here": 3274,
      "urtle": 3275,
      "Ġstove": 3276,
      "ĠGeorge": 3277,
      "Ġmagn": 3278,
      "Ġperm": 3279,
      "ĠJoey": 3280,
      "Ġcreate": 3281,
      "Ġdreamed": 3282,
      "apping": 3283,
      "Ġguard": 3284,
      "Ġcrayon": 3285,
      "Ġignorant": 3286,
      "Ġgraceful": 3287,
      "Ġlizard": 3288,
      "Ġlaundry": 3289,
      "Ġviolin": 3290,
      "Ġmiserable": 3291,
      "cream": 3292,
      "eat": 3293,
      "gn": 3294,
      "ud": 3295,
      "ĠOK": 3296,
      "heart": 3297,
      "ines": 3298,
      "Ġbet": 3299,
      "Ġfountain": 3300,
      "Ġdig": 3301,
      "Ġmama": 3302,
      "Ġgem": 3303,
      "anger": 3304,
      "Ġstamp": 3305,
      "Ġspag": 3306,
      "illa": 3307,
      "Ġscrew": 3308,
      "Ġyours": 3309,
      "Ġarrow": 3310,
      "ĠPapa": 3311,
      "ĠRose": 3312,
      "Ġbatter": 3313,
      "osie": 3314,
      "Ġbreakfast": 3315,
      "Ġpurse": 3316,
      "Ġdiscover": 3317,
      "Ġimagined": 3318,
      "Ġflute": 3319,
      "ĠBlue": 3320,
      "Ġfrightened": 3321,
      "Ġunknown": 3322,
      "hetti": 3323,
      "Ġspaghetti": 3324,
      "eve": 3325,
      "loe": 3326,
      "Ġwake": 3327,
      "Ġcudd": 3328,
      "Ġnur": 3329,
      "Ġnorm": 3330,
      "Ġnature": 3331,
      "Ġins": 3332,
      "Ġstat": 3333,
      "Ġshine": 3334,
      "ugged": 3335,
      "Ġagainst": 3336,
      "Ġenv": 3337,
      "Ġpicks": 3338,
      "Ġcompl": 3339,
      "ipe": 3340,
      "Ġunpack": 3341,
      "Ġrub": 3342,
      "Ġpale": 3343,
      "Ġmailbox": 3344,
      "Ġparade": 3345,
      "Ġmodest": 3346,
      "Ġencou": 3347,
      "hood": 3348,
      "Ġtied": 3349,
      "Ġson": 3350,
      "inary": 3351,
      "Ġbin": 3352,
      "Ġhay": 3353,
      "Ġhoop": 3354,
      "ery": 3355,
      "Ġreco": 3356,
      "Ġgrandpa": 3357,
      "Ġpeek": 3358,
      "ĠcouldnÃ¢": 3359,
      "Ġrubb": 3360,
      "Ġrules": 3361,
      "Ġsparkled": 3362,
      "Ġtroubled": 3363,
      "Ġreturn": 3364,
      "ĠRemy": 3365,
      "Ġhelm": 3366,
      "achel": 3367,
      "Ġdisgusting": 3368,
      "Ġstatue": 3369,
      "cil": 3370,
      "Ġcam": 3371,
      "ĠTed": 3372,
      "Ġnail": 3373,
      "Ġmoms": 3374,
      "ĠBella": 3375,
      "Ġlibr": 3376,
      "Ġshocked": 3377,
      "Ġshaking": 3378,
      "Ġthemselves": 3379,
      "ummer": 3380,
      "Ġfriendship": 3381,
      "Ġcost": 3382,
      "Ġsadly": 3383,
      "ellig": 3384,
      "Ġpole": 3385,
      "Ġintellig": 3386,
      "uct": 3387,
      "Ġstranger": 3388,
      "Ġsurf": 3389,
      "Ġlouder": 3390,
      "Ġframe": 3391,
      "Ġjoined": 3392,
      "Ġsweetheart": 3393,
      "Ġbutterflies": 3394,
      "Ġdreams": 3395,
      "Ġhung": 3396,
      "Ġsuit": 3397,
      "Ġjuicy": 3398,
      "Ġshape": 3399,
      "Ġpengu": 3400,
      "Ġpencil": 3401,
      "Ġkicked": 3402,
      "Ġindepend": 3403,
      "Spot": 3404,
      "Ġnormal": 3405,
      "par": 3406,
      "pid": 3407,
      "pered": 3408,
      "Ġturtle": 3409,
      "Ġwitch": 3410,
      "Ġbent": 3411,
      "Ġled": 3412,
      "Ġol": 3413,
      "Ġitself": 3414,
      "aled": 3415,
      "ĠMike": 3416,
      "Ġjolly": 3417,
      "Ġsepar": 3418,
      "Ġhelps": 3419,
      "ĠYour": 3420,
      "used": 3421,
      "bborn": 3422,
      "Ġsniff": 3423,
      "Ġimpro": 3424,
      "Ġcleaning": 3425,
      "Ġunl": 3426,
      "Ġpainter": 3427,
      "Ġhats": 3428,
      "Ġrolling": 3429,
      "Ġcomplet": 3430,
      "Ġbarber": 3431,
      "Ġstupid": 3432,
      "Ġstubborn": 3433,
      "gging": 3434,
      "ĠMaria": 3435,
      "Ġnurse": 3436,
      "Ġrecogn": 3437,
      "ext": 3438,
      "ience": 3439,
      "oot": 3440,
      "Ġing": 3441,
      "Ġhous": 3442,
      "Ġlamp": 3443,
      "Ġcorn": 3444,
      "Ġcush": 3445,
      "Ġcity": 3446,
      "Ġthirst": 3447,
      "Ġthief": 3448,
      "amond": 3449,
      "ĠBu": 3450,
      "Ġshadow": 3451,
      "ĠWould": 3452,
      "Ġagree": 3453,
      "iew": 3454,
      "Ġview": 3455,
      "Ġlearnt": 3456,
      "Ġeng": 3457,
      "Ġshows": 3458,
      "sely": 3459,
      "Ġjokes": 3460,
      "Ġtravel": 3461,
      "ations": 3462,
      "redient": 3463,
      "Ġcompass": 3464,
      "Ġcounting": 3465,
      "Ġcourage": 3466,
      "Ġpassport": 3467,
      "Ġdiamond": 3468,
      "Ġmicrop": 3469,
      "Ġwhispered": 3470,
      "Ġsalad": 3471,
      "Ġtwirled": 3472,
      "ophie": 3473,
      "Ġbeetle": 3474,
      "nowy": 3475,
      "Ġcamera": 3476,
      "Ġintelligent": 3477,
      "Ġingredient": 3478,
      "Ġhouses": 3479,
      "Ġmicrophone": 3480,
      "noon": 3481,
      "Ġlow": 3482,
      "Ġpow": 3483,
      "ison": 3484,
      "atter": 3485,
      "imney": 3486,
      "orilla": 3487,
      "Ġearth": 3488,
      "Ġur": 3489,
      "Ġstared": 3490,
      "Ġrepe": 3491,
      "ĠJul": 3492,
      "Ġspace": 3493,
      "Ġroared": 3494,
      "Ġmush": 3495,
      "Ġchimney": 3496,
      "Ġbeak": 3497,
      "Ġneedle": 3498,
      "Ġart": 3499,
      "Ġafternoon": 3500,
      "ĠRosie": 3501,
      "Ġzeb": 3502,
      "Ġpushing": 3503,
      "Ġgrowing": 3504,
      "Ġtreasures": 3505,
      "Ġcolours": 3506,
      "ĠRex": 3507,
      "uzzy": 3508,
      "eezed": 3509,
      "Ġthirsty": 3510,
      "Ġmushroom": 3511,
      "Ġzebra": 3512,
      "ubby": 3513,
      "Ġmelt": 3514,
      "Ġph": 3515,
      "Ġped": 3516,
      "ĠIÃ¢": 3517,
      "Ġhadn": 3518,
      "una": 3519,
      "ecause": 3520,
      "ĠAlex": 3521,
      "Ġchubby": 3522,
      "Ġpear": 3523,
      "Ġtrunk": 3524,
      "Ġclosely": 3525,
      "Ġnicely": 3526,
      "emo": 3527,
      "ĠAndy": 3528,
      "Ġtrash": 3529,
      "Ġhairy": 3530,
      "Ġreading": 3531,
      "Ġvisited": 3532,
      "Ġattract": 3533,
      "Ġmixer": 3534,
      "Ġspinning": 3535,
      "Ġtools": 3536,
      "Ġpilot": 3537,
      "Ġcompetitive": 3538,
      "Ġcharming": 3539,
      "Ġpants": 3540,
      "Ġhelmet": 3541,
      "Ġindependent": 3542,
      "Ġingredients": 3543,
      "Little": 3544,
      "While": 3545,
      "Yay": 3546,
      "yer": 3547,
      "Ġbase": 3548,
      "Ġcards": 3549,
      "Ġow": 3550,
      "Ġgorilla": 3551,
      "iron": 3552,
      "Ġstation": 3553,
      "Ġsofa": 3554,
      "ĠLola": 3555,
      "Ġshort": 3556,
      "Ġshield": 3557,
      "Ġref": 3558,
      "Ġreve": 3559,
      "alk": 3560,
      "tern": 3561,
      "Ġbirdie": 3562,
      "Ġchasing": 3563,
      "uddy": 3564,
      "Ġfinding": 3565,
      "ÅĵYou": 3566,
      "Ġsandc": 3567,
      "Ġresist": 3568,
      "Ġsecond": 3569,
      "Ġcupboard": 3570,
      "Ġpracticed": 3571,
      "Ġenth": 3572,
      "Ġadmire": 3573,
      "Ġfingers": 3574,
      "Ġnuts": 3575,
      "Ġdecorate": 3576,
      "Ġdestro": 3577,
      "Ġcricket": 3578,
      "Ġoyster": 3579,
      "Ġphot": 3580,
      "eer": 3581,
      "med": 3582,
      "Ġfour": 3583,
      "Ġfrag": 3584,
      "erry": 3585,
      "Ġpit": 3586,
      "Ġsauce": 3587,
      "ĠSnowy": 3588,
      "ĠitÃ¢": 3589,
      "Ġhero": 3590,
      "stairs": 3591,
      "Ġreind": 3592,
      "Ġnotice": 3593,
      "ills": 3594,
      "Ġstarting": 3595,
      "Ġmeas": 3596,
      "Ġtrack": 3597,
      "Ġcats": 3598,
      "Ġener": 3599,
      "Ġcheap": 3600,
      "Ġimpat": 3601,
      "Ġballoons": 3602,
      "Ġharsh": 3603,
      "Ġorganize": 3604,
      "ÅĵItÃ¢": 3605,
      "Ġordinary": 3606,
      "Ġlawyer": 3607,
      "ĠBrown": 3608,
      "Ġenvious": 3609,
      "Ġcompassion": 3610,
      "Ġenthus": 3611,
      "Ġsna": 3612,
      "Ġsummer": 3613,
      "ince": 3614,
      "Ġfurt": 3615,
      "Ġdess": 3616,
      "ision": 3617,
      "ric": 3618,
      "ĠLook": 3619,
      "ĠBaby": 3620,
      "Ġrece": 3621,
      "Ġkay": 3622,
      "Ġanx": 3623,
      "robe": 3624,
      "Ġpoem": 3625,
      "ĠFin": 3626,
      "Ġwindows": 3627,
      "angle": 3628,
      "Ġdistant": 3629,
      "Ġmissing": 3630,
      "Ġtomato": 3631,
      "Ġstretched": 3632,
      "arlie": 3633,
      "Ġseeds": 3634,
      "Ġdestroy": 3635,
      "Ġreindeer": 3636,
      "Ġimpatient": 3637,
      "Ġdessert": 3638,
      "Ch": 3639,
      "Daisy": 3640,
      "Ġsym": 3641,
      "Ġcurt": 3642,
      "Ġmild": 3643,
      "ĠTony": 3644,
      "atch": 3645,
      "Ġrice": 3646,
      "Ġlicked": 3647,
      "Ġisn": 3648,
      "Ġallowed": 3649,
      "Ġscatter": 3650,
      "ĠWh": 3651,
      "play": 3652,
      "ucked": 3653,
      "ĠEverything": 3654,
      "ected": 3655,
      "Ġarg": 3656,
      "Ġcryst": 3657,
      "Ġdisplay": 3658,
      "berries": 3659,
      "Ġexper": 3660,
      "Ġstretch": 3661,
      "Ġavo": 3662,
      "Ġfrowned": 3663,
      "Ġengine": 3664,
      "Ġattractive": 3665,
      "Ġcurtain": 3666,
      "Will": 3667,
      "bor": 3668,
      "big": 3669,
      "ikes": 3670,
      "lid": 3671,
      "shed": 3672,
      "scope": 3673,
      "Ġbump": 3674,
      "Ġflex": 3675,
      "Ġyet": 3676,
      "Ġshiver": 3677,
      "Ġgoal": 3678,
      "roscope": 3679,
      "ĠWhere": 3680,
      "Ġanywhere": 3681,
      "Ġlistening": 3682,
      "Ġpattern": 3683,
      "Ġmarched": 3684,
      "Ġsplit": 3685,
      "Ġcounted": 3686,
      "Ġearly": 3687,
      "Ġpotato": 3688,
      "Ġburn": 3689,
      "Ġshells": 3690,
      "Ġmicroscope": 3691,
      "Ġriding": 3692,
      "Ġsoldier": 3693,
      "Ġfurther": 3694,
      "Ġanxious": 3695,
      "bigail": 3696,
      "ci": 3697,
      "cu": 3698,
      "iest": 3699,
      "rn": 3700,
      "ser": 3701,
      "Ġsend": 3702,
      "Ġsize": 3703,
      "inarian": 3704,
      "Ġfu": 3705,
      "Ġpad": 3706,
      "Ġoats": 3707,
      "ĠTr": 3708,
      "iling": 3709,
      "Ġspilled": 3710,
      "Ġvide": 3711,
      "Ġolder": 3712,
      "Ġholid": 3713,
      "Ġsunset": 3714,
      "ĠCat": 3715,
      "Ġsnuggled": 3716,
      "Ġbrothers": 3717,
      "bol": 3718,
      "eterinarian": 3719,
      "Ġlaughs": 3720,
      "Ġcountry": 3721,
      "Ġspring": 3722,
      "Ġgiggle": 3723,
      "Ġeggs": 3724,
      "Ġhuman": 3725,
      "Ġwishes": 3726,
      "âĤ¬âĢľ": 3727,
      "Ġpumpkin": 3728,
      "Ġinsist": 3729,
      "Ġfragile": 3730,
      "Ġholiday": 3731,
      "'.": 3732,
      "Jenny": 3733,
      "night": 3734,
      "ocer": 3735,
      "Ġtem": 3736,
      "Ġach": 3737,
      "Ġbri": 3738,
      "Ġcur": 3739,
      "Ġnation": 3740,
      "Ġrhin": 3741,
      "ado": 3742,
      "Ġweather": 3743,
      "iches": 3744,
      "âĤ¬.": 3745,
      "Ġclapping": 3746,
      "Ġveterinarian": 3747,
      "Ġswe": 3748,
      "Ġsne": 3749,
      "Ġshouldn": 3750,
      "Ġnowhere": 3751,
      "Ġclimbing": 3752,
      "Ġsquash": 3753,
      "Ġtrick": 3754,
      "Ġdriving": 3755,
      "Ġpretending": 3756,
      "Ġcrazy": 3757,
      "Ġfalls": 3758,
      "Ġharbor": 3759,
      "Ġincl": 3760,
      "Ġcreatures": 3761,
      "Ġimpress": 3762,
      "Ġsteps": 3763,
      "Ġberry": 3764,
      "Ġspoiled": 3765,
      "Ġhunter": 3766,
      "eath": 3767,
      "Ġcostum": 3768,
      "Ġsymbol": 3769,
      "Ġflexible": 3770,
      "oceros": 3771,
      "Ġrhinoceros": 3772,
      "ab": 3773,
      "hic": 3774,
      "under": 3775,
      "Ġig": 3776,
      "Ġtut": 3777,
      "Ġhook": 3778,
      "reci": 3779,
      "Ġfat": 3780,
      "Ġdug": 3781,
      "isk": 3782,
      "imp": 3783,
      "ckey": 3784,
      "chanic": 3785,
      "ĠBuddy": 3786,
      "Ġmechanic": 3787,
      "Ġsomewhere": 3788,
      "Ġlab": 3789,
      "Ġhockey": 3790,
      "Ġtwig": 3791,
      "Ġstrugg": 3792,
      "Ġdisag": 3793,
      "Ġappreci": 3794,
      "ĠNemo": 3795,
      "Ġdrawer": 3796,
      "Ġshoe": 3797,
      "Ġgiven": 3798,
      "Ġvehic": 3799,
      "ĠChloe": 3800,
      "Ġwrap": 3801,
      "Ġfearful": 3802,
      "Ġpoured": 3803,
      "ÅĵThatÃ¢": 3804,
      "Ġsilver": 3805,
      "Ġcherry": 3806,
      "Ġfilthy": 3807,
      "Ġigloo": 3808,
      "Because": 3809,
      "Ġiron": 3810,
      "inked": 3811,
      "Ġluck": 3812,
      "Ġcro": 3813,
      "arry": 3814,
      "ense": 3815,
      "Ġthunder": 3816,
      "Ġsheep": 3817,
      "ents": 3818,
      "ĠBear": 3819,
      "Ġjet": 3820,
      "Ġscale": 3821,
      "Ġsword": 3822,
      "Ġhose": 3823,
      "Ġgrin": 3824,
      "Ġbadly": 3825,
      "Ġdishes": 3826,
      "Ġdeliver": 3827,
      "Ġlightning": 3828,
      "Ġtriangle": 3829,
      "Ġsuper": 3830,
      "Ġminute": 3831,
      "Ġfolder": 3832,
      "Ġsandwiches": 3833,
      "Ġfootball": 3834,
      "ĠSteve": 3835,
      "Ġmotorcy": 3836,
      "Ġclassroom": 3837,
      "Grandma": 3838,
      "Ġprepare": 3839,
      "Ġhammer": 3840,
      "Ġrescue": 3841,
      "Ġmotorcycle": 3842,
      "ium": 3843,
      "oppy": 3844,
      "pes": 3845,
      "ses": 3846,
      "Ġfine": 3847,
      "Ġcree": 3848,
      "Ġhedge": 3849,
      "Ġdive": 3850,
      "Ġthumb": 3851,
      "Ġinf": 3852,
      "celet": 3853,
      "Ġrug": 3854,
      "Ġsoar": 3855,
      "Ġonion": 3856,
      "indy": 3857,
      "ĠAre": 3858,
      "Ġknob": 3859,
      "Ġknock": 3860,
      "Ġscold": 3861,
      "ĠWill": 3862,
      "Ġmule": 3863,
      "ĠdidnÃ¢": 3864,
      "Ġtrade": 3865,
      "Ġbracelet": 3866,
      "Ġmagaz": 3867,
      "Ġbrighter": 3868,
      "Ġtowers": 3869,
      "ngth": 3870,
      "Ġcrane": 3871,
      "Ġmeans": 3872,
      "Ġstops": 3873,
      "Ġswinging": 3874,
      "Ġsleeping": 3875,
      "Ġsub": 3876,
      "Ġbarn": 3877,
      "Ġobser": 3878,
      "Ġstrength": 3879,
      "Ġmystery": 3880,
      "Ġwheat": 3881,
      "Ġcardboard": 3882,
      "Ġcelebrated": 3883,
      "Ġexamine": 3884,
      "Ġhumble": 3885,
      "Ġpopular": 3886,
      "Ġmagnet": 3887,
      "Ġkayak": 3888,
      "Ġimpressive": 3889,
      "Ġtutor": 3890,
      "case": 3891,
      "lass": 3892,
      "was": 3893,
      "ween": 3894,
      "Ġsuff": 3895,
      "Ġlend": 3896,
      "Ġmen": 3897,
      "Ġsaus": 3898,
      "ĠSh": 3899,
      "Ġthread": 3900,
      "Ġplayer": 3901,
      "Ġnames": 3902,
      "Ġscoot": 3903,
      "Ġstarts": 3904,
      "asc": 3905,
      "Ġrose": 3906,
      "agg": 3907,
      "Ġmuff": 3908,
      "ssible": 3909,
      "Ġblinked": 3910,
      "Ġquar": 3911,
      "Ġclock": 3912,
      "Ġended": 3913,
      "Ġgloomy": 3914,
      "ĠBobo": 3915,
      "Thanks": 3916,
      "ĠRo": 3917,
      "Ġbehave": 3918,
      "Ġpair": 3919,
      "Ġsteal": 3920,
      "Ġbounced": 3921,
      "Ġeagerly": 3922,
      "Ġletters": 3923,
      "Daddy": 3924,
      "Ġdishwas": 3925,
      "Ġleaned": 3926,
      "Ġbetween": 3927,
      "Ġenergy": 3928,
      "Ġmagazine": 3929,
      "Ġdishwasher": 3930,
      "aff": 3931,
      "cut": 3932,
      "corn": 3933,
      "nit": 3934,
      "sit": 3935,
      "te": 3936,
      "zor": 3937,
      "Ġsent": 3938,
      "Ġwing": 3939,
      "Ġpan": 3940,
      "Ġpor": 3941,
      "Ġpun": 3942,
      "Ġoak": 3943,
      "Ġshel": 3944,
      "stic": 3945,
      "Ġweep": 3946,
      "Ġreward": 3947,
      "Ġseas": 3948,
      "urb": 3949,
      "Ġknot": 3950,
      "Ġknown": 3951,
      "reeze": 3952,
      "ĠElla": 3953,
      "Ġcham": 3954,
      "Ġvine": 3955,
      "Ġsung": 3956,
      "Ġexplain": 3957,
      "Ġoffer": 3958,
      "Ġevening": 3959,
      "Ġrazor": 3960,
      "Ġglove": 3961,
      "Ġwriting": 3962,
      "Ġtrap": 3963,
      "Ġpapers": 3964,
      "Ġfurnit": 3965,
      "Ġpiano": 3966,
      "Ġprov": 3967,
      "Ġdisturb": 3968,
      "Ġbalanc": 3969,
      "Ġbandage": 3970,
      "Ġchickens": 3971,
      "Ġpopcorn": 3972,
      "Ġrepair": 3973,
      "Ġlibrary": 3974,
      "Ġfurniture": 3975,
      "Ann": 3976,
      "Give": 3977,
      "If": 3978,
      "ef": 3979,
      "nam": 3980,
      "Ġfro": 3981,
      "Ġmill": 3982,
      "Ġpal": 3983,
      "enry": 3984,
      "ĠSophie": 3985,
      "ora": 3986,
      "Ġyach": 3987,
      "ceed": 3988,
      "unately": 3989,
      "Ġrequ": 3990,
      "Ġreef": 3991,
      "Ġboots": 3992,
      "Ġspell": 3993,
      "illie": 3994,
      "ĠAbigail": 3995,
      "Ġswamp": 3996,
      "Ġskipping": 3997,
      "ÅĵLook": 3998,
      "iastic": 3999,
      "ement": 4000,
      "Ġshoulder": 4001,
      "Ġamazement": 4002,
      "ĠRachel": 4003,
      "Ġsticker": 4004,
      "Ġboats": 4005,
      "Ġdrawings": 4006,
      "Ġsoftly": 4007,
      "Ġairport": 4008,
      "Ġdancer": 4009,
      "Ġsuitc": 4010,
      "Ġvend": 4011,
      "Ġfields": 4012,
      "Ġbeef": 4013,
      "Ġcere": 4014,
      "Ġceiling": 4015,
      "astic": 4016,
      "Ġpige": 4017,
      "Ġstirred": 4018,
      "Ġavail": 4019,
      "Emily": 4020,
      "Ġfishing": 4021,
      "Ġpenguin": 4022,
      "Ġseparate": 4023,
      "Ġcushion": 4024,
      "Ġenthusiastic": 4025,
      "Ġfuel": 4026,
      "Ġcreek": 4027,
      "lasses": 4028,
      "Ġsunglasses": 4029,
      "Ġpalace": 4030,
      "Ġyacht": 4031,
      "By": 4032,
      "Go": 4033,
      "Peter": 4034,
      "aid": 4035,
      "ccol": 4036,
      "cano": 4037,
      "Ġfan": 4038,
      "Ġfle": 4039,
      "Ġfasc": 4040,
      "Ġpand": 4041,
      "Ġport": 4042,
      "Ġstack": 4043,
      "ĠBird": 4044,
      "Ġshark": 4045,
      "Ġneat": 4046,
      "icer": 4047,
      "Ġfauc": 4048,
      "Ġswitch": 4049,
      "Ġskirt": 4050,
      "ips": 4051,
      "Ġbookcase": 4052,
      "Ġteleph": 4053,
      "Ġraining": 4054,
      "Ġforgave": 4055,
      "Ġcooler": 4056,
      "Ġthanks": 4057,
      "Ġcomput": 4058,
      "Ġveil": 4059,
      "Ġgifted": 4060,
      "Inside": 4061,
      "Ġapologized": 4062,
      "Ġcompassionate": 4063,
      "Ġcrystal": 4064,
      "Ġvehicle": 4065,
      "Ġquarrel": 4066,
      "Ġavailable": 4067,
      "ccoli": 4068,
      "Ġfaucet": 4069,
      "Ġtelephone": 4070,
      "'ve": 4071,
      "astle": 4072,
      "dom": 4073,
      "Ġapr": 4074,
      "Ġsink": 4075,
      "Ġtheater": 4076,
      "inking": 4077,
      "erc": 4078,
      "Ġpra": 4079,
      "Ġgear": 4080,
      "any": 4081,
      "orable": 4082,
      "Ġink": 4083,
      "Ġbeep": 4084,
      "Ġbeamed": 4085,
      "Ġrot": 4086,
      "Ġshade": 4087,
      "ĠMandy": 4088,
      "ĠJames": 4089,
      "urch": 4090,
      "icop": 4091,
      "Ġhelpless": 4092,
      "Ġbackpack": 4093,
      "Ġanyway": 4094,
      "Ġtray": 4095,
      "Ġskills": 4096,
      "ĠGive": 4097,
      "Ġshouting": 4098,
      "Ġbroccoli": 4099,
      "ĠKim": 4100,
      "ĠKate": 4101,
      "Ġpetals": 4102,
      "Ġbouncing": 4103,
      "Ġimagination": 4104,
      "Ġtuna": 4105,
      "Ġsplashing": 4106,
      "Ġflutter": 4107,
      "Ġhelicop": 4108,
      "Ġcomplain": 4109,
      "Ġsubway": 4110,
      "Ġcereal": 4111,
      "Ġhelicopter": 4112,
      "\",": 4113,
      "gen": 4114,
      "Ġwife": 4115,
      "Ġhut": 4116,
      "Ġfive": 4117,
      "Ġwaste": 4118,
      "Ġpine": 4119,
      "ĠSee": 4120,
      "anna": 4121,
      "uth": 4122,
      "ĠIs": 4123,
      "une": 4124,
      "Ġlip": 4125,
      "Ġrever": 4126,
      "fume": 4127,
      "Ġchance": 4128,
      "Ġchirp": 4129,
      "Ġornam": 4130,
      "Ġadorable": 4131,
      "Ġsurround": 4132,
      "Ġraft": 4133,
      "Ġvol": 4134,
      "Ġperfume": 4135,
      "Ġhoping": 4136,
      "ulu": 4137,
      "Ġcreated": 4138,
      "Ġtripped": 4139,
      "Ġhaircut": 4140,
      "ĠInst": 4141,
      "Ġattach": 4142,
      "Ġthrowing": 4143,
      "Ġsucceed": 4144,
      "Everyone": 4145,
      "Ġslides": 4146,
      "Ġmarbles": 4147,
      "Ġlively": 4148,
      "Together": 4149,
      "Ġwhisper": 4150,
      "Ġaccepted": 4151,
      "ĠFreddy": 4152,
      "Ġimprove": 4153,
      "Ġcomplete": 4154,
      "Ġchamber": 4155,
      "Ġvendor": 4156,
      "Ġfascin": 4157,
      "Is": 4158,
      "Jim": 4159,
      "Mr": 4160,
      "ib": 4161,
      "ibb": 4162,
      "mend": 4163,
      "ray": 4164,
      "Ġten": 4165,
      "Ġtorn": 4166,
      "Ġbikes": 4167,
      "ito": 4168,
      "ommend": 4169,
      "Ġhalf": 4170,
      "Ġherb": 4171,
      "ĠHere": 4172,
      "igz": 4173,
      "ooped": 4174,
      "Ġbeg": 4175,
      "Ġstage": 4176,
      "kelet": 4177,
      "ĠLilly": 4178,
      "Ġshamp": 4179,
      "!\",": 4180,
      "Ġgolf": 4181,
      "Ġexerc": 4182,
      "ices": 4183,
      "Ġnobody": 4184,
      "place": 4185,
      "Ġcob": 4186,
      "Ġlawn": 4187,
      "Ġflame": 4188,
      "Ġflour": 4189,
      "Ġholes": 4190,
      "Ġtruth": 4191,
      "cod": 4192,
      "Ġbelongs": 4193,
      "Ġserve": 4194,
      "Ġrecommend": 4195,
      "Ġblowing": 4196,
      "Ġpinch": 4197,
      "Ġwandered": 4198,
      "Ġrelaxed": 4199,
      "ĠClara": 4200,
      "ĠFrank": 4201,
      "Ġphoto": 4202,
      "Ġcrocod": 4203,
      "Ġinfant": 4204,
      "Ġshampoo": 4205,
      "Would": 4206,
      "Ġhall": 4207,
      "Ġeither": 4208,
      "Ġstad": 4209,
      "ĠLuna": 4210,
      "Ġweap": 4211,
      "alley": 4212,
      "Ġputting": 4213,
      "ĠEll": 4214,
      "Ġchurch": 4215,
      "bbie": 4216,
      "Ġbuzz": 4217,
      "Ġjogged": 4218,
      "Ġappl": 4219,
      "Ġappro": 4220,
      "Ġheaded": 4221,
      "Ġrestless": 4222,
      "Ġpaid": 4223,
      "Ġfloating": 4224,
      "Ġmarried": 4225,
      "Ġpolish": 4226,
      "Ġattention": 4227,
      "fortunately": 4228,
      "Ġquietly": 4229,
      "Ġcollar": 4230,
      "Ġadmir": 4231,
      "Ġburning": 4232,
      "Ġlemonade": 4233,
      "Emma": 4234,
      "Ġsandcastle": 4235,
      "aggie": 4236,
      "Ġflea": 4237,
      "Ġvolcano": 4238,
      "Ġstadium": 4239,
      "Eventually": 4240,
      "appy": 4241,
      "tress": 4242,
      "Ġants": 4243,
      "Ġsle": 4244,
      "Ġbreeze": 4245,
      "Ġlid": 4246,
      "Ġdough": 4247,
      "Ġumb": 4248,
      "chair": 4249,
      "ĠMilly": 4250,
      "Ġjail": 4251,
      "ĠJerry": 4252,
      "Ġfactor": 4253,
      "Ġfinds": 4254,
      "Ġpopped": 4255,
      "inky": 4256,
      "Ġraise": 4257,
      "Ġchess": 4258,
      "Ġcube": 4259,
      "Ġdiscu": 4260,
      "Ġdeaf": 4261,
      "Ġtrail": 4262,
      "Ġdressed": 4263,
      "Ġfloated": 4264,
      "Ġprevent": 4265,
      "Ġpressed": 4266,
      "Ġlions": 4267,
      "Ġarmchair": 4268,
      "Ġunderstanding": 4269,
      "Ġfreez": 4270,
      "Ġeagle": 4271,
      "Ġmistakes": 4272,
      "Ġparrot": 4273,
      "Ġspeak": 4274,
      "Ġstuffed": 4275,
      "happy": 4276,
      "Ġcabinet": 4277,
      "Ġvideo": 4278,
      "Ġgrinned": 4279,
      "Ġscooter": 4280,
      "Ġapron": 4281,
      "keleton": 4282,
      "Ġcrocodile": 4283,
      "Ġumbre": 4284,
      "Ġfactory": 4285,
      "ffe": 4286,
      "lier": 4287,
      "arm": 4288,
      "Ġelev": 4289,
      "Ġrag": 4290,
      "Ġsoil": 4291,
      "Ġhappier": 4292,
      "Ġjug": 4293,
      "Ġleak": 4294,
      "Ġcoffe": 4295,
      "ionary": 4296,
      "ĠJosh": 4297,
      "Ġslipper": 4298,
      "Ġchecked": 4299,
      "Ġunhappy": 4300,
      "Ġshouts": 4301,
      "Ġblueberry": 4302,
      "Sammy": 4303,
      "Ġmarry": 4304,
      "Ġmattress": 4305,
      "Ġperfectly": 4306,
      "Ġbreaks": 4307,
      "Ġcounter": 4308,
      "Ġdisappear": 4309,
      "Ġfallen": 4310,
      "Ġearlier": 4311,
      "Ġincre": 4312,
      "Ġenter": 4313,
      "Ġmeeting": 4314,
      "Ġshrugged": 4315,
      "Ġshrimp": 4316,
      "Ġvalue": 4317,
      "Ġdrops": 4318,
      "Ġshooting": 4319,
      "Ġyoga": 4320,
      "ictionary": 4321,
      "Ġpowder": 4322,
      "Ġrefre": 4323,
      "Ġavoc": 4324,
      "Ġsweater": 4325,
      "iskers": 4326,
      "Ġporch": 4327,
      "Ġpigeon": 4328,
      "Ġumbrella": 4329,
      "Ġelevator": 4330,
      "Ġcoffee": 4331,
      "Ġslippery": 4332,
      "lb": 4333,
      "ler": 4334,
      "nal": 4335,
      "rise": 4336,
      "web": 4337,
      "Ġtucked": 4338,
      "Ġlime": 4339,
      "Ġcase": 4340,
      "Ġhesit": 4341,
      "Ġdust": 4342,
      "Ġdictionary": 4343,
      "Ġwashing": 4344,
      "Ġmel": 4345,
      "Ġpalm": 4346,
      "Ġpipe": 4347,
      "Ġgro": 4348,
      "Ġitch": 4349,
      "Ġcane": 4350,
      "Ġseeing": 4351,
      "Ġcopper": 4352,
      "Ġswung": 4353,
      "Ġorder": 4354,
      "Ġbulb": 4355,
      "Ġsurprises": 4356,
      "Ġstickers": 4357,
      "Johnny": 4358,
      "Ġsandbox": 4359,
      "Ġpaused": 4360,
      "Ġsparkling": 4361,
      "bbles": 4362,
      "Ġstud": 4363,
      "Ġjournal": 4364,
      "Ġinstr": 4365,
      "Ġpuddles": 4366,
      "ĠCharlie": 4367,
      "Ġrespectful": 4368,
      "Ġstraight": 4369,
      "Ġsupport": 4370,
      "Ġcrossed": 4371,
      "Ġfilm": 4372,
      "Ġglowing": 4373,
      "Ġrubber": 4374,
      "Ġsneak": 4375,
      "Ġinclud": 4376,
      "Ġsuitcase": 4377,
      "Ġcomputer": 4378,
      "Ġpraised": 4379,
      "Ġcobweb": 4380,
      "io": 4381,
      "vet": 4382,
      "Ġskeleton": 4383,
      "Ġfought": 4384,
      "ising": 4385,
      "Ġsaving": 4386,
      "igate": 4387,
      "Ġbean": 4388,
      "Ġribb": 4389,
      "addy": 4390,
      "ĠLulu": 4391,
      "Ġhappens": 4392,
      "ĠBill": 4393,
      "ĠMay": 4394,
      "ĠElly": 4395,
      "Ġvalley": 4396,
      "Ġtwink": 4397,
      "Ġrooms": 4398,
      "Ġbears": 4399,
      "ction": 4400,
      "Ġbelow": 4401,
      "Ġfollowing": 4402,
      "Benny": 4403,
      "Ġfireplace": 4404,
      "Ġparent": 4405,
      "Ġholds": 4406,
      "Ġblackboard": 4407,
      "Ġwelcomed": 4408,
      "Ġnapkin": 4409,
      "ÅĵIÃ¢": 4410,
      "Ġinvest": 4411,
      "ĠJenna": 4412,
      "Ġimagine": 4413,
      "Ġsolved": 4414,
      "Ġignored": 4415,
      "Ġdiary": 4416,
      "ĠAnnie": 4417,
      "Ġgolden": 4418,
      "Ġcherries": 4419,
      "Ġawe": 4420,
      "ĠUn": 4421,
      "ĠWhiskers": 4422,
      "Ġscolded": 4423,
      "ĠInstead": 4424,
      "Ġweapon": 4425,
      "Ġslept": 4426,
      "Mark": 4427,
      "Mandy": 4428,
      "Ow": 4429,
      "With": 4430,
      "iately": 4431,
      "nger": 4432,
      "right": 4433,
      "sing": 4434,
      "Ġwag": 4435,
      "ayla": 4436,
      "Ġeff": 4437,
      "Ġstro": 4438,
      "Ġstaff": 4439,
      "Ġnote": 4440,
      "Ġspade": 4441,
      "Ġsport": 4442,
      "icing": 4443,
      "Ġalarm": 4444,
      "Ġmanage": 4445,
      "asis": 4446,
      "Ġpride": 4447,
      "Ġfeelings": 4448,
      "Ġpoppy": 4449,
      "mand": 4450,
      "Ġsunrise": 4451,
      "aud": 4452,
      "ucture": 4453,
      "Ġopera": 4454,
      "Ġstructure": 4455,
      "ĠCar": 4456,
      "Ġcast": 4457,
      "Ġwarning": 4458,
      "Ġdelay": 4459,
      "Ġtrave": 4460,
      "Ġcrow": 4461,
      "Ġpulls": 4462,
      "Ġpushes": 4463,
      "Ġpaints": 4464,
      "Ġbarrel": 4465,
      "Ġfalling": 4466,
      "Ġwhistling": 4467,
      "spap": 4468,
      "Ġshrink": 4469,
      "Ġdecorations": 4470,
      "Ġapart": 4471,
      "Today": 4472,
      "looking": 4473,
      "Ġspending": 4474,
      "Ġstrawberry": 4475,
      "Ġolive": 4476,
      "Ġurge": 4477,
      "Ġbaseball": 4478,
      "Ġrevealed": 4479,
      "mediately": 4480,
      "Ġinsisted": 4481,
      "igzag": 4482,
      "Ġgrocer": 4483,
      "Ġinvestigate": 4484,
      "Tweet": 4485,
      "ait": 4486,
      "aked": 4487,
      "ives": 4488,
      "ues": 4489,
      "Ġchat": 4490,
      "Ġmop": 4491,
      "Ġoat": 4492,
      "Ġoasis": 4493,
      "anny": 4494,
      "Ġyaw": 4495,
      "Ġrise": 4496,
      "Ġplastic": 4497,
      "aded": 4498,
      "elery": 4499,
      "Ġweigh": 4500,
      "Ġshakes": 4501,
      "alph": 4502,
      "Ġscur": 4503,
      "iform": 4504,
      "Ġnewspap": 4505,
      "Ġvroom": 4506,
      "Ġblouse": 4507,
      "Ġdoggy": 4508,
      "Ġpoison": 4509,
      "antly": 4510,
      "ememb": 4511,
      "ĠCindy": 4512,
      "Ġsneeze": 4513,
      "Ġbravely": 4514,
      "Ġdoors": 4515,
      "Ġuniform": 4516,
      "Ġrabbits": 4517,
      "aces": 4518,
      "Ġacorn": 4519,
      "Ġsqueeze": 4520,
      "Ġladyb": 4521,
      "Ġfireman": 4522,
      "Ġfirework": 4523,
      "Ġsetting": 4524,
      "elcome": 4525,
      "Ġcups": 4526,
      "Ġmint": 4527,
      "Ġwheels": 4528,
      "Ġentered": 4529,
      "Ġregret": 4530,
      "Ġcartoon": 4531,
      "Ġhanging": 4532,
      "Ġringing": 4533,
      "Ġneighbourhood": 4534,
      "Ġradio": 4535,
      "Ġsettle": 4536,
      "Ġfascinated": 4537,
      "Ġexercise": 4538,
      "Ġapplaud": 4539,
      "Ġeffort": 4540,
      "emember": 4541,
      "azz": 4542,
      "cc": 4543,
      "ccer": 4544,
      "drobe": 4545,
      "ges": 4546,
      "Ġsince": 4547,
      "Ġtoes": 4548,
      "Ġwaving": 4549,
      "Ġdear": 4550,
      "Ġgir": 4551,
      "ories": 4552,
      "ĠHenry": 4553,
      "ĠHelp": 4554,
      "Ġsoccer": 4555,
      "Ġlives": 4556,
      "htub": 4557,
      "Ġnoteb": 4558,
      "Ġclub": 4559,
      "Ġworth": 4560,
      "Ġnews": 4561,
      "Ġpoked": 4562,
      "ĠFrog": 4563,
      "Ġkindly": 4564,
      "Ġwardrobe": 4565,
      "Ġfog": 4566,
      "Ġdifferen": 4567,
      "Ġopens": 4568,
      "Ġfrogs": 4569,
      "Ġmessage": 4570,
      "Ġbathtub": 4571,
      "Ġgrowled": 4572,
      "anges": 4573,
      "Ġjeep": 4574,
      "Ġlands": 4575,
      "Ġvillag": 4576,
      "Ġpastel": 4577,
      "Ġpastry": 4578,
      "Ġpresents": 4579,
      "Ġpatiently": 4580,
      "Ġburned": 4581,
      "Ġcollecting": 4582,
      "Ġzoomed": 4583,
      "Ġmedal": 4584,
      "Ġpaws": 4585,
      "Ġsprayed": 4586,
      "Ġdestination": 4587,
      "Ġcrawling": 4588,
      "Ġagreement": 4589,
      "Ġstruggling": 4590,
      "Ġyawned": 4591,
      "Ġnotebook": 4592,
      "..": 4593,
      "Al": 4594,
      "All": 4595,
      "Ok": 4596,
      "Ouch": 4597,
      "Susie": 4598,
      "mare": 4599,
      "Ġtooth": 4600,
      "Ġwaist": 4601,
      "Ġfut": 4602,
      "Ġmention": 4603,
      "Ġgust": 4604,
      "Ġequ": 4605,
      "Ġbegged": 4606,
      "Ġyield": 4607,
      "itten": 4608,
      "hter": 4609,
      "Ġalive": 4610,
      "ases": 4611,
      "Ġprop": 4612,
      "Ġlaughter": 4613,
      "ÅĵCan": 4614,
      "Ġquit": 4615,
      "Ġwarmth": 4616,
      "ission": 4617,
      "Ġsmells": 4618,
      "Ġwinter": 4619,
      "Ġeasier": 4620,
      "Ġcollected": 4621,
      "Ġpuzzles": 4622,
      "Ġsupply": 4623,
      "Ġbarking": 4624,
      "Ġmemories": 4625,
      "Ġpermission": 4626,
      "Ġdestroyed": 4627,
      "Ġexperience": 4628,
      "Ġdisagreed": 4629,
      "Ġpanda": 4630,
      "annah": 4631,
      "Ġapproached": 4632,
      "Ġfreezer": 4633,
      "Ġavocado": 4634,
      "Ġvillagers": 4635,
      "Ġfuture": 4636,
      "eed": 4637,
      "mother": 4638,
      "ring": 4639,
      "tain": 4640,
      "Ġsim": 4641,
      "Ġtoil": 4642,
      "Ġtoast": 4643,
      "ites": 4644,
      "Ġost": 4645,
      "lend": 4646,
      "irped": 4647,
      "Ġstom": 4648,
      "Ġstitch": 4649,
      "rich": 4650,
      "sters": 4651,
      "seek": 4652,
      "ĠMe": 4653,
      "ĠMillie": 4654,
      "raged": 4655,
      "rod": 4656,
      "quito": 4657,
      "Ġflapped": 4658,
      "Ġchirped": 4659,
      "Ġkneel": 4660,
      "Ġintrod": 4661,
      "ÅĵNo": 4662,
      "Ġquack": 4663,
      "Ġslip": 4664,
      "Ġoranges": 4665,
      "Ġunite": 4666,
      "Ġuniver": 4667,
      "Ġperched": 4668,
      "ĠLetÃ¢": 4669,
      "Ġfloat": 4670,
      "Ġtaller": 4671,
      "Ġmatches": 4672,
      "Ġsquirrels": 4673,
      "Ġmonkeys": 4674,
      "Ġchairs": 4675,
      "ĠOl": 4676,
      "Ġcooked": 4677,
      "Ġchewed": 4678,
      "Ġpeanuts": 4679,
      "Ġscratch": 4680,
      "Ġcrib": 4681,
      "Ġstrawberries": 4682,
      "ĠDanny": 4683,
      "Ġsniffed": 4684,
      "ĠBuzz": 4685,
      "Ġbrick": 4686,
      "Ġcostume": 4687,
      "Ġappreciate": 4688,
      "Ġobserve": 4689,
      "Ġshelter": 4690,
      "Ġrequest": 4691,
      "Bye": 4692,
      "Ġtoilet": 4693,
      "Ġostrich": 4694,
      "Fl": 4695,
      "Next": 4696,
      "lvet": 4697,
      "Ġsings": 4698,
      "Ġbicy": 4699,
      "Ġlily": 4700,
      "Ġlang": 4701,
      "Ġcre": 4702,
      "Ġcaul": 4703,
      "Ġpage": 4704,
      "ĠHave": 4705,
      "These": 4706,
      "herman": 4707,
      "ĠBunny": 4708,
      "ores": 4709,
      "ifl": 4710,
      "Ġvent": 4711,
      "Ġpoke": 4712,
      "Ġmyself": 4713,
      "Ġquiz": 4714,
      "Ġimmediately": 4715,
      "Ġgrill": 4716,
      "Ġcheek": 4717,
      "Ġideas": 4718,
      "Ġjogging": 4719,
      "ĠRu": 4720,
      "Ġzipped": 4721,
      "Ġnightmare": 4722,
      "Ġdresses": 4723,
      "Ġsailing": 4724,
      "Ġvelvet": 4725,
      "Ġplanted": 4726,
      "ggy": 4727,
      "Ġmissile": 4728,
      "Ġchoice": 4729,
      "Ġcows": 4730,
      "Ġexamined": 4731,
      "Ġwipe": 4732,
      "ĠBeth": 4733,
      "Ġfisherman": 4734,
      "Ġmeasuring": 4735,
      "Ġsausage": 4736,
      "Ġsurrounded": 4737,
      "Ġnewspaper": 4738,
      "Ġlangu": 4739,
      "Ġcaulifl": 4740,
      "Did": 4741,
      "ived": 4742,
      "mm": 4743,
      "nies": 4744,
      "squito": 4745,
      "Ġda": 4746,
      "Ġmass": 4747,
      "oming": 4748,
      "omes": 4749,
      "ĠTina": 4750,
      "ĠSad": 4751,
      "igi": 4752,
      "Ġshed": 4753,
      "ĠLiz": 4754,
      "ĠLee": 4755,
      "Ġfort": 4756,
      "hero": 4757,
      "ĠIts": 4758,
      "Ġalright": 4759,
      "Ġworse": 4760,
      "ĠWho": 4761,
      "ieve": 4762,
      "ĠEach": 4763,
      "ÅĵHello": 4764,
      "Ġmosquito": 4765,
      "izes": 4766,
      "Ġremain": 4767,
      "Ġremained": 4768,
      "aches": 4769,
      "Ġappear": 4770,
      "Ġsque": 4771,
      "Ġsqueezed": 4772,
      "Ġhopes": 4773,
      "Ġbathe": 4774,
      "Ġshovel": 4775,
      "Ġhills": 4776,
      "Ġcrash": 4777,
      "Ġresult": 4778,
      "Ġdeeper": 4779,
      "Ġbuckle": 4780,
      "Ġpastels": 4781,
      "ĠChirp": 4782,
      "Ġradish": 4783,
      "Ġstrip": 4784,
      "ĠPeople": 4785,
      "Ġunlock": 4786,
      "Ġsnapped": 4787,
      "Ġsuperhero": 4788,
      "Ġsuffer": 4789,
      "Ġchirping": 4790,
      "Ġbegin": 4791,
      "Ġadmiring": 4792,
      "Ġwags": 4793,
      "momet": 4794,
      "rmomet": 4795,
      "Ġsigh": 4796,
      "Ġthermomet": 4797,
      "Ġlaser": 4798,
      "Ġdried": 4799,
      "Ġpages": 4800,
      "Ġitem": 4801,
      "eside": 4802,
      "Ġemer": 4803,
      "Ġsocks": 4804,
      "Ġweight": 4805,
      "Ġweighed": 4806,
      "enty": 4807,
      "Ġlie": 4808,
      "Ġboot": 4809,
      "icky": 4810,
      "Ġscore": 4811,
      "Ġrang": 4812,
      "Ġvac": 4813,
      "Ġdownstairs": 4814,
      "Ġpossible": 4815,
      "Ġsunlight": 4816,
      "ÅĵMommy": 4817,
      "ĠEveryday": 4818,
      "Ġbury": 4819,
      "Ġeaten": 4820,
      "Ġclearing": 4821,
      "ĠPaul": 4822,
      "Ġdemand": 4823,
      "Ġrested": 4824,
      "Ġtricks": 4825,
      "avid": 4826,
      "Ġforgotten": 4827,
      "Ġelephants": 4828,
      "Ġneighbors": 4829,
      "Ġeasily": 4830,
      "Ġtrusted": 4831,
      "Ġcaptain": 4832,
      "Ġsalt": 4833,
      "Ġweeks": 4834,
      "Ġbarks": 4835,
      "Ġtasks": 4836,
      "ĠBetty": 4837,
      "Ġtwisted": 4838,
      "Ġsettled": 4839,
      "ĠJulie": 4840,
      "Ġdifference": 4841,
      "Ġthermometer": 4842,
      "Jen": 4843,
      "Jake": 4844,
      "Mar": 4845,
      "Mor": 4846,
      "act": 4847,
      "cage": 4848,
      "house": 4849,
      "ĠV": 4850,
      "hell": 4851,
      "Ġtide": 4852,
      "Ġsir": 4853,
      "Ġbeside": 4854,
      "omas": 4855,
      "atched": 4856,
      "Ġhanger": 4857,
      "ĠSu": 4858,
      "ety": 4859,
      "Ġrust": 4860,
      "Ġrush": 4861,
      "Ġsore": 4862,
      "Ġonwards": 4863,
      "Ġjazz": 4864,
      "ĠJess": 4865,
      "Ġscooped": 4866,
      "Ġrod": 4867,
      "Ġbirdcage": 4868,
      "Ġvest": 4869,
      "Ġtap": 4870,
      "Ġgrapes": 4871,
      "Ġpeach": 4872,
      "ÅĵWe": 4873,
      "Ġshower": 4874,
      "ĠJoy": 4875,
      "Ġsneezed": 4876,
      "Ġfastest": 4877,
      "ipment": 4878,
      "Ġkeeping": 4879,
      "xture": 4880,
      "Ġtremb": 4881,
      "ĠNext": 4882,
      "Ġzigzag": 4883,
      "Ġcutting": 4884,
      "Ġcompany": 4885,
      "Ġsparkles": 4886,
      "Ġplanes": 4887,
      "Ġhearts": 4888,
      "Ġbeneath": 4889,
      "Ġproblems": 4890,
      "Ġsafety": 4891,
      "Ġgrabs": 4892,
      "Ġmodel": 4893,
      "uzie": 4894,
      "Ġencouraged": 4895,
      "Ġpedal": 4896,
      "Ġscattered": 4897,
      "Ġprovide": 4898,
      "Ġbalancing": 4899,
      "Ġreverse": 4900,
      "Ġdiscuss": 4901,
      "Ġrefreshed": 4902,
      "Ġmelon": 4903,
      "Ġequipment": 4904,
      "Ġsimple": 4905,
      "Ġbicycle": 4906,
      "Ġcauliflower": 4907,
      "Ġmassage": 4908,
      "Moral": 4909,
      "Bobby": 4910,
      "George": 4911,
      "Lisa": 4912,
      "cense": 4913,
      "ik": 4914,
      "iar": 4915,
      "ls": 4916,
      "nie": 4917,
      "osed": 4918,
      "Ġsizes": 4919,
      "Ġwool": 4920,
      "Ġtore": 4921,
      "Ġcelery": 4922,
      "Ġdaisy": 4923,
      "Ġdire": 4924,
      "Ġpitch": 4925,
      "ppers": 4926,
      "riage": 4927,
      "Ġplates": 4928,
      "Ġplays": 4929,
      "Ġhappiest": 4930,
      "ĠBy": 4931,
      "Ġlick": 4932,
      "Ġlicense": 4933,
      "Ġroot": 4934,
      "Ġchores": 4935,
      "ÅĵThank": 4936,
      "izard": 4937,
      "ĠletÃ¢": 4938,
      "hyth": 4939,
      "Ġtalent": 4940,
      "Ġattached": 4941,
      "Ġbringing": 4942,
      "Ġwhistled": 4943,
      "Ġfigured": 4944,
      "ĠSomeone": 4945,
      "Ġcandles": 4946,
      "Before": 4947,
      "Ġmarching": 4948,
      "Ġordered": 4949,
      "Ġjewelry": 4950,
      "Ġprayed": 4951,
      "Ġgrandmother": 4952,
      "Ġpoints": 4953,
      "Ġyogurt": 4954,
      "Ġrecognize": 4955,
      "ĠBubbles": 4956,
      "Ġreceive": 4957,
      "Ġbumped": 4958,
      "Ġachieve": 4959,
      "Ġmenu": 4960,
      "Ġmuffin": 4961,
      "ĠEllie": 4962,
      "Ġvacation": 4963,
      "hythm": 4964,
      "Bet": 4965,
      "Mike": 4966,
      "Qu": 4967,
      "Wait": 4968,
      "ah": 4969,
      "ging": 4970,
      "low": 4971,
      "Ġhomes": 4972,
      "Ġfest": 4973,
      "Ġheel": 4974,
      "Ġmittens": 4975,
      "igned": 4976,
      "amb": 4977,
      "Ġsoaring": 4978,
      "Ġupstairs": 4979,
      "chor": 4980,
      "ĠBuzzy": 4981,
      "Ġanchor": 4982,
      "ĠMaggie": 4983,
      "Ġspaces": 4984,
      "agull": 4985,
      "Ġcaring": 4986,
      "Ġdecision": 4987,
      "uckily": 4988,
      "isten": 4989,
      "Ġadult": 4990,
      "Ġconf": 4991,
      "Ġcaut": 4992,
      "Ġcalend": 4993,
      "Ġhurting": 4994,
      "Ġdrain": 4995,
      "Ġtelev": 4996,
      "Ġremembers": 4997,
      "Ġsticky": 4998,
      "Ġfixing": 4999,
      "Ġcontinue": 5000,
      "Ġpress": 5001,
      "Ġmoments": 5002,
      "Ġwallet": 5003,
      "Ġaccom": 5004,
      "Ġbasketball": 5005,
      "laire": 5006,
      "Ġpasta": 5007,
      "Ġdiscovery": 5008,
      "Ġpracticing": 5009,
      "Ġthrows": 5010,
      "Ġzooming": 5011,
      "Ġignore": 5012,
      "ĠBefore": 5013,
      "Ġsupposed": 5014,
      "Ġprepared": 5015,
      "affe": 5016,
      "Ġpupil": 5017,
      "Ġbattery": 5018,
      "ĠBrownie": 5019,
      "Ġargue": 5020,
      "Ġornaments": 5021,
      "Ġinstruct": 5022,
      "Ġincluded": 5023,
      "Ġgiraffe": 5024,
      "Ġcalendar": 5025,
      "Ġtelevision": 5026,
      "Ex": 5027,
      "Pete": 5028,
      "Remember": 5029,
      "Sad": 5030,
      "Yum": 5031,
      "do": 5032,
      "ude": 5033,
      "walk": 5034,
      "ĠOnce": 5035,
      "Ġwid": 5036,
      "Ġdigg": 5037,
      "Ġobe": 5038,
      "ides": 5039,
      "imi": 5040,
      "Ġsheet": 5041,
      "allen": 5042,
      "allow": 5043,
      "Ġseagull": 5044,
      "ĠAn": 5045,
      "Ġmeowed": 5046,
      "Ġchalk": 5047,
      "Ġchallen": 5048,
      "Ġvet": 5049,
      "Ġpeppers": 5050,
      "ÅĵOh": 5051,
      "ÅĵWhy": 5052,
      "Ġoverjoy": 5053,
      "Ġslap": 5054,
      "izing": 5055,
      "Ġbye": 5056,
      "ĠPat": 5057,
      "Ġwarn": 5058,
      "Ġtease": 5059,
      "Ġtrapped": 5060,
      "Ġgrey": 5061,
      "Ġrestore": 5062,
      "Ġfiref": 5063,
      "Ġsatis": 5064,
      "Ġairpl": 5065,
      "Ġbelieved": 5066,
      "Ġsparkle": 5067,
      "Ġguy": 5068,
      "Ġvisiting": 5069,
      "Ġbottles": 5070,
      "Ġblankets": 5071,
      "Ġsprink": 5072,
      "Ġmailman": 5073,
      "Ġneighborhood": 5074,
      "ups": 5075,
      "Ġsliding": 5076,
      "Ġhurried": 5077,
      "ĠGod": 5078,
      "Ġticket": 5079,
      "Ġapologize": 5080,
      "Ġpillows": 5081,
      "Ġrecognized": 5082,
      "Ġrepeat": 5083,
      "Ġreceived": 5084,
      "ĠTrue": 5085,
      "Ġribbon": 5086,
      "Ġcrept": 5087,
      "Ġlanguage": 5088,
      "Ġfestiv": 5089,
      "Ġdigging": 5090,
      "Ġoverjoyed": 5091,
      "Not": 5092,
      "cles": 5093,
      "fied": 5094,
      "kins": 5095,
      "ody": 5096,
      "ube": 5097,
      "xy": 5098,
      "ĠĠ": 5099,
      "Ġtug": 5100,
      "Ġtube": 5101,
      "Ġtour": 5102,
      "Ġtong": 5103,
      "Ġbill": 5104,
      "Ġwagging": 5105,
      "Ġheat": 5106,
      "Ġoxy": 5107,
      "isies": 5108,
      "Ġnone": 5109,
      "Ġnavy": 5110,
      "ĠHop": 5111,
      "vers": 5112,
      "Ġevent": 5113,
      "Ġstable": 5114,
      "Ġrake": 5115,
      "ĠBig": 5116,
      "ĠBun": 5117,
      "Ġwanting": 5118,
      "Ġreaches": 5119,
      "umble": 5120,
      "Ġhelper": 5121,
      "Ġnovel": 5122,
      "Your": 5123,
      "Ġmakeup": 5124,
      "Ġbrus": 5125,
      "Ġflies": 5126,
      "bbing": 5127,
      "Ġmoves": 5128,
      "Ġburied": 5129,
      "Ġjumps": 5130,
      "ĠGigi": 5131,
      "Ġheads": 5132,
      "Ġbaking": 5133,
      "Ġpulling": 5134,
      "Ġdrinking": 5135,
      "Ġparts": 5136,
      "Ġdrift": 5137,
      "ĠKayla": 5138,
      "osity": 5139,
      "Ġbreathe": 5140,
      "Ġspoons": 5141,
      "Ġactiv": 5142,
      "Ġfolded": 5143,
      "Ġmachines": 5144,
      "Ġjewels": 5145,
      "Ġloaded": 5146,
      "Ġselling": 5147,
      "Ġmemory": 5148,
      "Ġpermit": 5149,
      "Ġcuddled": 5150,
      "Ġshadows": 5151,
      "ĠJulia": 5152,
      "Ġmeasured": 5153,
      "Ġcurtains": 5154,
      "ĠFroggy": 5155,
      "Ġproperly": 5156,
      "Ġventured": 5157,
      "Ġdaisies": 5158,
      "Ġaccompl": 5159,
      "Ġinstructions": 5160,
      "Ġobey": 5161,
      "Ġfestival": 5162,
      "Ġoxygen": 5163,
      "First": 5164,
      "Lola": 5165,
      "fit": 5166,
      "men": 5167,
      "Ġsip": 5168,
      "Ġwizard": 5169,
      "edd": 5170,
      "Ġdare": 5171,
      "Ġmug": 5172,
      "ays": 5173,
      "Ġyucky": 5174,
      "Ġsoared": 5175,
      "ĠLater": 5176,
      "Ġann": 5177,
      "ĠMat": 5178,
      "Ġseal": 5179,
      "ddy": 5180,
      "Ġroaring": 5181,
      "Ġworries": 5182,
      "Ġmuddy": 5183,
      "Ġflav": 5184,
      "ĠDavid": 5185,
      "bbled": 5186,
      "Ġpearl": 5187,
      "ÅĵDon": 5188,
      "ĠJacky": 5189,
      "Ġstruggled": 5190,
      "Ġwatches": 5191,
      "Ġbrain": 5192,
      "Ġfamil": 5193,
      "Ġcable": 5194,
      "Ġreplace": 5195,
      "Ġthrilled": 5196,
      "ĠGr": 5197,
      "ĠNot": 5198,
      "Ġcontain": 5199,
      "Ġspots": 5200,
      "Ġshopping": 5201,
      "umber": 5202,
      "Ġhorses": 5203,
      "Ġbouncy": 5204,
      "Ġgiggling": 5205,
      "Ġspiders": 5206,
      "Ġreminder": 5207,
      "Ġstirring": 5208,
      "Ġkisses": 5209,
      "Ġcircus": 5210,
      "Ġpinched": 5211,
      "Ġleader": 5212,
      "Ġrides": 5213,
      "ĠAlways": 5214,
      "Ġjellyfish": 5215,
      "omeday": 5216,
      "Ġolives": 5217,
      "Ġargued": 5218,
      "Ġcountryside": 5219,
      "Ġpunish": 5220,
      "Ġdisturbed": 5221,
      "Ġbuzzing": 5222,
      "Ġcastles": 5223,
      "Ġlandscape": 5224,
      "ĠChirpy": 5225,
      "lowly": 5226,
      "!'": 5227,
      "Fr": 5228,
      "Sometimes": 5229,
      "Welcome": 5230,
      "abby": 5231,
      "lings": 5232,
      "neath": 5233,
      "oved": 5234,
      "Ġwigg": 5235,
      "Ġtonight": 5236,
      "Ġlines": 5237,
      "Ġlamb": 5238,
      "Ġduring": 5239,
      "ĠTess": 5240,
      "ari": 5241,
      "Ġgain": 5242,
      "atie": 5243,
      "anas": 5244,
      "imy": 5245,
      "Ġya": 5246,
      "Ġsty": 5247,
      "Ġsting": 5248,
      "Ġrow": 5249,
      "Ġripe": 5250,
      "Ġliqu": 5251,
      "ĠMaddy": 5252,
      "Ġspit": 5253,
      "Ġexact": 5254,
      "Ġclaw": 5255,
      "usted": 5256,
      "Ġpeered": 5257,
      "Ġcalls": 5258,
      "Ġimage": 5259,
      "Ġletting": 5260,
      "Ġvoices": 5261,
      "Ġturning": 5262,
      "Joey": 5263,
      "Ġwondering": 5264,
      "ĠRa": 5265,
      "Ġgreed": 5266,
      "ĠNora": 5267,
      "Ġfollows": 5268,
      "thank": 5269,
      "Ġtastes": 5270,
      "Ġmonsters": 5271,
      "Ġcreation": 5272,
      "Ġcatching": 5273,
      "Ġprec": 5274,
      "Ġseesaw": 5275,
      "ĠKing": 5276,
      "Ġmuscles": 5277,
      "Ġpetted": 5278,
      "Ġsidewalk": 5279,
      "Ġmustache": 5280,
      "ĠFloppy": 5281,
      "Ġrespons": 5282,
      "Ġgifts": 5283,
      "Ġgathering": 5284,
      "Ġbananas": 5285,
      "Ġpirates": 5286,
      "Ġtickets": 5287,
      "ĠZoe": 5288,
      "Ġstudying": 5289,
      "Ġstrike": 5290,
      "Ġobjects": 5291,
      "Really": 5292,
      "Ġdiscovering": 5293,
      "Ġitems": 5294,
      "Ġtrembling": 5295,
      "Ġbillboard": 5296,
      "Ġliquid": 5297,
      ".'": 5298,
      "Sh": 5299,
      "Un": 5300,
      "ex": 5301,
      "mble": 5302,
      "uzz": 5303,
      "hest": 5304,
      "Ġtip": 5305,
      "Ġtugged": 5306,
      "Ġsomeday": 5307,
      "int": 5308,
      "Ġble": 5309,
      "Ġbare": 5310,
      "Ġbother": 5311,
      "Ġlect": 5312,
      "Ġcared": 5313,
      "Ġcous": 5314,
      "Ġpanic": 5315,
      "ĠTilly": 5316,
      "ĠSunny": 5317,
      "ĠHappy": 5318,
      "Ġinch": 5319,
      "utty": 5320,
      "Ġbeat": 5321,
      "Ġripped": 5322,
      "Ġshot": 5323,
      "ĠMiss": 5324,
      "Ġspike": 5325,
      "Ġclick": 5326,
      "Ġmeat": 5327,
      "Ġlaid": 5328,
      "Ġsadness": 5329,
      "Ġchuck": 5330,
      "Ġeveryday": 5331,
      "Ġbecoming": 5332,
      "Ġskull": 5333,
      "Ġglo": 5334,
      "Ġuncle": 5335,
      "ĠGary": 5336,
      "Ġwaits": 5337,
      "Ġblueberries": 5338,
      "Ġsteam": 5339,
      "Ġdarkness": 5340,
      "Ġbreaking": 5341,
      "Ġcrashed": 5342,
      "ĠwasnÃ¢": 5343,
      "Ġanswers": 5344,
      "Ġplanned": 5345,
      "Ġcoloured": 5346,
      "Andy": 5347,
      "Ġdrinks": 5348,
      "Ġinvite": 5349,
      "Ġmission": 5350,
      "Ġactually": 5351,
      "Ġserved": 5352,
      "Ġprotected": 5353,
      "Ġsights": 5354,
      "Grace": 5355,
      "Ġscru": 5356,
      "Ġpiles": 5357,
      "ĠBetsy": 5358,
      "Ġcamping": 5359,
      "Ġcomforted": 5360,
      "Ġcuddle": 5361,
      "Ġrubbing": 5362,
      "uctantly": 5363,
      "Ġcurled": 5364,
      "abel": 5365,
      "Ġtwigs": 5366,
      "Ġstudied": 5367,
      "Ġtravell": 5368,
      "Ġscurried": 5369,
      "Fluffy": 5370,
      "ĠSuzy": 5371,
      "Ġspaceship": 5372,
      "Ġtongue": 5373,
      "Ġlecture": 5374,
      "James": 5375,
      "Kitty": 5376,
      "Le": 5377,
      "Or": 5378,
      "Teddy": 5379,
      "Yuck": 5380,
      "iel": 5381,
      "jam": 5382,
      "Ġtub": 5383,
      "Ġtodd": 5384,
      "Ġbun": 5385,
      "Ġfed": 5386,
      "itar": 5387,
      "Ġoil": 5388,
      "ishing": 5389,
      "Ġgaz": 5390,
      "iding": 5391,
      "Ġnicer": 5392,
      "ona": 5393,
      "Ġthro": 5394,
      "Ġinse": 5395,
      "Ġrhythm": 5396,
      "ĠLizzy": 5397,
      "Ġweb": 5398,
      "Ġlicks": 5399,
      "idey": 5400,
      "Ġloops": 5401,
      "ĠItÃ¢": 5402,
      "Ġgirls": 5403,
      "Ġoutdo": 5404,
      "Ġoutfit": 5405,
      "?\",": 5406,
      "ĠcanÃ¢": 5407,
      "Ġbrings": 5408,
      "Ġgotten": 5409,
      "ÅĵDo": 5410,
      "aula": 5411,
      "Ġstrang": 5412,
      "Ġgrant": 5413,
      "Ġraised": 5414,
      "Ġhardly": 5415,
      "Ġunderneath": 5416,
      "iously": 5417,
      "ĠGood": 5418,
      "Ġrealize": 5419,
      "Ġtremble": 5420,
      "Ġmaster": 5421,
      "Ġbeds": 5422,
      "Ġwritten": 5423,
      "Ġrained": 5424,
      "Ġwherever": 5425,
      "Ġbites": 5426,
      "itches": 5427,
      "Ġcrunch": 5428,
      "Ġsteak": 5429,
      "Ġbuildings": 5430,
      "Ġbowed": 5431,
      "Ġpaintings": 5432,
      "Ġhotel": 5433,
      "Ġcomple": 5434,
      "Ġguitar": 5435,
      "Ġpurred": 5436,
      "Ġsitu": 5437,
      "Ġbathrobe": 5438,
      "Ġdoctors": 5439,
      "Ġhealed": 5440,
      "Ġminer": 5441,
      "ĠwouldnÃ¢": 5442,
      "Ġexpected": 5443,
      "Ġescap": 5444,
      "izzie": 5445,
      "Ġentire": 5446,
      "Ġacted": 5447,
      "Ġpassing": 5448,
      "Ġkicking": 5449,
      "Ġsolut": 5450,
      "Ġkingdom": 5451,
      "Ġlemons": 5452,
      "Ġteaching": 5453,
      "ĠOr": 5454,
      "Ġwisdom": 5455,
      "ophia": 5456,
      "Ġbloomed": 5457,
      "Ġguessed": 5458,
      "Ġsurface": 5459,
      "Ġreveal": 5460,
      "Ġseason": 5461,
      "Ġladybug": 5462,
      "Ġmentioned": 5463,
      "Ġairplane": 5464,
      "Ġyawn": 5465,
      "Ġexactly": 5466,
      "Ġclaws": 5467,
      "Ġgreedy": 5468,
      "Ġprecious": 5469,
      "Ġbarely": 5470,
      "jamas": 5471,
      "Ġbunnies": 5472,
      "Luckily": 5473,
      "dled": 5474,
      "fy": 5475,
      "iers": 5476,
      "mel": 5477,
      "pite": 5478,
      "pected": 5479,
      "uke": 5480,
      "udy": 5481,
      "Ġx": 5482,
      "Ġhate": 5483,
      "Ġfir": 5484,
      "ities": 5485,
      "Ġlung": 5486,
      "Ġlumber": 5487,
      "ero": 5488,
      "amie": 5489,
      "ĠyouÃ¢": 5490,
      "Ġrele": 5491,
      "terday": 5492,
      "Ġboom": 5493,
      "Ġsew": 5494,
      "Ġspear": 5495,
      "Ġexit": 5496,
      "Ġexha": 5497,
      "urry": 5498,
      "Ġarea": 5499,
      "Ġcliff": 5500,
      "omething": 5501,
      "Ġscient": 5502,
      "Ġago": 5503,
      "Ġcoal": 5504,
      "ĠFollow": 5505,
      "Ġgrape": 5506,
      "ÅĵMom": 5507,
      "uced": 5508,
      "Ġoper": 5509,
      "Ġslice": 5510,
      "Ġwatered": 5511,
      "Ġsnap": 5512,
      "Ġglowed": 5513,
      "Ġremove": 5514,
      "ĠPenny": 5515,
      "Ġunex": 5516,
      "ĠGreen": 5517,
      "Ġteasing": 5518,
      "Ġwaiter": 5519,
      "ĠRalph": 5520,
      "Ġworks": 5521,
      "Ġcuriosity": 5522,
      "Ġpajamas": 5523,
      "ĠThomas": 5524,
      "Ġsteel": 5525,
      "Ġprinted": 5526,
      "Ġreluctantly": 5527,
      "Ġdreamt": 5528,
      "Ġpartic": 5529,
      "Ġmath": 5530,
      "Ġmixing": 5531,
      "Ġinvit": 5532,
      "Ġcelebration": 5533,
      "ĠChr": 5534,
      "Ġfolding": 5535,
      "Ġhurric": 5536,
      "ĠHowever": 5537,
      "eezing": 5538,
      "Ġcompetition": 5539,
      "âĤ¬âĢĿ": 5540,
      "Ready": 5541,
      "Ġunpacked": 5542,
      "Ġurged": 5543,
      "Ġtomatoes": 5544,
      "Ġachieved": 5545,
      "Ġmuffins": 5546,
      "Ġincrease": 5547,
      "Ġacorns": 5548,
      "Ġcartoons": 5549,
      "Ġfirefight": 5550,
      "Ġbrushes": 5551,
      "edding": 5552,
      "Ġchuckled": 5553,
      "Ġgloves": 5554,
      "Ġthroat": 5555,
      "Ġstrangers": 5556,
      "Ġexhausted": 5557,
      "Ġscientist": 5558,
      "Ġunexpected": 5559,
      "Cl": 5560,
      "Mmm": 5561,
      "aa": 5562,
      "bies": 5563,
      "bul": 5564,
      "oed": 5565,
      "rig": 5566,
      "rance": 5567,
      "shing": 5568,
      "tory": 5569,
      "you": 5570,
      "zen": 5571,
      "Ëľ": 5572,
      "Ġsway": 5573,
      "Ġsib": 5574,
      "Ġfash": 5575,
      "Ġpause": 5576,
      "Ġgle": 5577,
      "ĠSim": 5578,
      "ĠSal": 5579,
      "ĠSure": 5580,
      "ĠSuzie": 5581,
      "ĠHannah": 5582,
      "Ġhers": 5583,
      "ira": 5584,
      "Ġstem": 5585,
      "Ġhistory": 5586,
      "Ġloose": 5587,
      "Ġweren": 5588,
      "ĠJon": 5589,
      "inda": 5590,
      "âĤ¬Ëľ": 5591,
      "Ġnodd": 5592,
      "ests": 5593,
      "Ġflood": 5594,
      "Ġknowled": 5595,
      "Ġwilling": 5596,
      "Ġcomfy": 5597,
      "ĠClaire": 5598,
      "ffic": 5599,
      "Ġtractor": 5600,
      "Ġtraffic": 5601,
      "ĠSpidey": 5602,
      "though": 5603,
      "Ġbabies": 5604,
      "Ġmuscle": 5605,
      "Ġneighbours": 5606,
      "Ġcreamy": 5607,
      "Ġteaches": 5608,
      "Ġpotion": 5609,
      "Ġwinner": 5610,
      "Ġaccidents": 5611,
      "Ġdetermination": 5612,
      "Ġparked": 5613,
      "Ġsilent": 5614,
      "Ġsilence": 5615,
      "Ġsoldiers": 5616,
      "Ġvanished": 5617,
      "Ġencourag": 5618,
      "Ġearthqu": 5619,
      "Ġpotatoes": 5620,
      "Ġtemple": 5621,
      "Ġbricks": 5622,
      "Ġcostumes": 5623,
      "Ġpunished": 5624,
      "Ġfrozen": 5625,
      "Ġfluttered": 5626,
      "Ġhesitated": 5627,
      "ĠUnfortunately": 5628,
      "Ġgrocery": 5629,
      "ĠOlive": 5630,
      "Ġbeginning": 5631,
      "Ġoutdoors": 5632,
      "Ġcompleted": 5633,
      "Ġfirm": 5634,
      "Ġparticular": 5635,
      "Ġsiblings": 5636,
      "Ġknowledge": 5637,
      "Happy": 5638,
      "Kate": 5639,
      "Toby": 5640,
      "aze": 5641,
      "cited": 5642,
      "fire": 5643,
      "ien": 5644,
      "ossible": 5645,
      "vin": 5646,
      "Ġast": 5647,
      "Ġsense": 5648,
      "Ġwow": 5649,
      "Ġcent": 5650,
      "Ġpanc": 5651,
      "Ġgained": 5652,
      "Ġgaze": 5653,
      "ĠSlowly": 5654,
      "ĠSomething": 5655,
      "Ġwhip": 5656,
      "htray": 5657,
      "Ġrelease": 5658,
      "Ġashtray": 5659,
      "riends": 5660,
      "ĠMimi": 5661,
      "ĠJe": 5662,
      "Ġbrushed": 5663,
      "Ġvict": 5664,
      "Ġanytime": 5665,
      "ÅĵMy": 5666,
      "Ġslimy": 5667,
      "Ġofficer": 5668,
      "emma": 5669,
      "aker": 5670,
      "Ġracing": 5671,
      "Ġbrand": 5672,
      "Ġimpossible": 5673,
      "Ġbedtime": 5674,
      "Ġwrites": 5675,
      "ĠRob": 5676,
      "ĠRobby": 5677,
      "Ġimportance": 5678,
      "ĠNick": 5679,
      "Ġcontro": 5680,
      "Ġambul": 5681,
      "Ġwooden": 5682,
      "Ġprinter": 5683,
      "Ġcreating": 5684,
      "Ġrelief": 5685,
      "ĠEmmy": 5686,
      "Ġhated": 5687,
      "avi": 5688,
      "angled": 5689,
      "Ġplanet": 5690,
      "Ġsecrets": 5691,
      "Ġburst": 5692,
      "Ġcollection": 5693,
      "Ġtune": 5694,
      "perature": 5695,
      "Ġnetwork": 5696,
      "ĠStar": 5697,
      "Ġmatching": 5698,
      "Ġpoliceman": 5699,
      "Ġsquares": 5700,
      "ĠPepper": 5701,
      "Ġmasks": 5702,
      "ĠMikey": 5703,
      "Ġunlocked": 5704,
      "Ġcompletely": 5705,
      "Ġpowers": 5706,
      "Ġrepeats": 5707,
      "Ġmelted": 5708,
      "Ġtemperature": 5709,
      "Ġcurly": 5710,
      "Ġlabel": 5711,
      "gency": 5712,
      "Ġcrowd": 5713,
      "Ġkneeled": 5714,
      "Ġuniverse": 5715,
      "ĠJessie": 5716,
      "Ġconfident": 5717,
      "Ġchallenge": 5718,
      "Ġactivities": 5719,
      "melia": 5720,
      "Ġinvitation": 5721,
      "Ġhurricane": 5722,
      "rigued": 5723,
      "Ġambulance": 5724,
      "Ah": 5725,
      "Bella": 5726,
      "Even": 5727,
      "Pe": 5728,
      "Rachel": 5729,
      "baby": 5730,
      "bric": 5731,
      "ippy": 5732,
      "wo": 5733,
      "ĠYes": 5734,
      "Ġaff": 5735,
      "Ġbang": 5736,
      "Ġbones": 5737,
      "Ġhi": 5738,
      "Ġfet": 5739,
      "Ġfile": 5740,
      "itely": 5741,
      "Ġcal": 5742,
      "Ġmi": 5743,
      "ĠTiny": 5744,
      "ann": 5745,
      "oni": 5746,
      "Ġstare": 5747,
      "ĠLike": 5748,
      "ĠLinda": 5749,
      "Ġlips": 5750,
      "Ġloving": 5751,
      "ĠJune": 5752,
      "Ġknelt": 5753,
      "Ġleap": 5754,
      "ason": 5755,
      "Ġfabric": 5756,
      "Ġranch": 5757,
      "Ġbrid": 5758,
      "ĠEarth": 5759,
      "Ġhugging": 5760,
      "ĠDid": 5761,
      "ÅĵThis": 5762,
      "iona": 5763,
      "Ġstruck": 5764,
      "Ġcomm": 5765,
      "Ġpretti": 5766,
      "Ġracc": 5767,
      "Ġunderground": 5768,
      "Ġconc": 5769,
      "bee": 5770,
      "Ġuns": 5771,
      "Ġunited": 5772,
      "Ġrocked": 5773,
      "Ġcolored": 5774,
      "Ġgreet": 5775,
      "Ġyelling": 5776,
      "ĠNutty": 5777,
      "Ġrule": 5778,
      "Ġours": 5779,
      "ths": 5780,
      "Ġstaring": 5781,
      "Ġstarfish": 5782,
      "Ġseems": 5783,
      "oline": 5784,
      "Bobo": 5785,
      "Ġreaching": 5786,
      "Ġdesert": 5787,
      "Ġmouths": 5788,
      "Ġcord": 5789,
      "Ġsigns": 5790,
      "Ġrespond": 5791,
      "Ġpigs": 5792,
      "Ġinviting": 5793,
      "Ġentrance": 5794,
      "Ġactions": 5795,
      "Ġcelebrating": 5796,
      "Ġhits": 5797,
      "Ġvalued": 5798,
      "Ġmountains": 5799,
      "Ġpouring": 5800,
      "Ġprints": 5801,
      "However": 5802,
      "Ġgrandbaby": 5803,
      "Ġrecording": 5804,
      "Ġcampfire": 5805,
      "Ġrescued": 5806,
      "Ġlollipops": 5807,
      "Ġnails": 5808,
      "Ġowned": 5809,
      "Ġtracks": 5810,
      "Charlie": 5811,
      "Ġtricky": 5812,
      "Ġdisagree": 5813,
      "Ġseashell": 5814,
      "Ġbalanced": 5815,
      "ĠBirdy": 5816,
      "Ġsucceeded": 5817,
      "Mrs": 5818,
      "Ġtornado": 5819,
      "Ġitchy": 5820,
      "Ġbeans": 5821,
      "ĠUncle": 5822,
      "Ġgroceries": 5823,
      "Ġapplauded": 5824,
      "Ġintroduced": 5825,
      "Ġemergency": 5826,
      "Ġdemanded": 5827,
      "Ġdirection": 5828,
      "Quack": 5829,
      "Ġcautiously": 5830,
      "Ġsatisfied": 5831,
      "ÅĵDonÃ¢": 5832,
      "Ġstyle": 5833,
      "ĠRabbit": 5834,
      "Unfortunately": 5835,
      "Ġbleed": 5836,
      "Ġgazed": 5837,
      "Ġinsect": 5838,
      "Ġcrunchy": 5839,
      "Ġsolution": 5840,
      "Ġfirefighters": 5841,
      "Ġglee": 5842,
      "Ġearthquake": 5843,
      "Ġprettiest": 5844,
      "Ġraccoon": 5845,
      "Days": 5846,
      "Jul": 5847,
      "Mittens": 5848,
      "Ro": 5849,
      "Rose": 5850,
      "Sandy": 5851,
      "Wh": 5852,
      "gers": 5853,
      "ivery": 5854,
      "ox": 5855,
      "son": 5856,
      "Ġsix": 5857,
      "Ġwound": 5858,
      "Ġwaff": 5859,
      "ouch": 5860,
      "Ġlugg": 5861,
      "ern": 5862,
      "Ġpony": 5863,
      "ĠTues": 5864,
      "arling": 5865,
      "igator": 5866,
      "Ġbeam": 5867,
      "Ġbeard": 5868,
      "rior": 5869,
      "Ġplenty": 5870,
      "Ġshock": 5871,
      "ugs": 5872,
      "Ġalligator": 5873,
      "Ġscra": 5874,
      "asm": 5875,
      "Ġcoats": 5876,
      "Ġflames": 5877,
      "Ġchop": 5878,
      "Ġchases": 5879,
      "Ġprune": 5880,
      "Ġblood": 5881,
      "ĠFirst": 5882,
      "ĠFriends": 5883,
      "Ġintrigued": 5884,
      "Ġhowever": 5885,
      "Ġbravery": 5886,
      "Ġchef": 5887,
      "Ġsnatched": 5888,
      "Ġexplorer": 5889,
      "ĠPandy": 5890,
      "Ġwarrior": 5891,
      "acy": 5892,
      "Ġzero": 5893,
      "Ġresting": 5894,
      "Ġcrumb": 5895,
      "Ġopening": 5896,
      "Ġfilling": 5897,
      "Ġsweets": 5898,
      "Ġgrassy": 5899,
      "Ġarrive": 5900,
      "Ġpretends": 5901,
      "ĠKatie": 5902,
      "Ġtablet": 5903,
      "ĠwonÃ¢": 5904,
      "Ġcupc": 5905,
      "Ġfreeze": 5906,
      "astles": 5907,
      "Ġwinning": 5908,
      "Ġpaths": 5909,
      "Goodbye": 5910,
      "Ġsafer": 5911,
      "Ġspraying": 5912,
      "Ġtwirling": 5913,
      "Ġadding": 5914,
      "Ġperformance": 5915,
      "Grandpa": 5916,
      "Ġworms": 5917,
      "ÅĵWhatÃ¢": 5918,
      "Ġgracefully": 5919,
      "ĠZoomy": 5920,
      "Ġstamps": 5921,
      "Ġbatteries": 5922,
      "Ġencourage": 5923,
      "Ġpenguins": 5924,
      "ÅĵYouÃ¢": 5925,
      "Ġsandcastles": 5926,
      "Ġpatterns": 5927,
      "Ġpaddled": 5928,
      "Ġdelivered": 5929,
      "Ġsausages": 5930,
      "ĠRoger": 5931,
      "Annie": 5932,
      "Ġfluttering": 5933,
      "Ġornament": 5934,
      "Tweety": 5935,
      "Ġstomach": 5936,
      "ĠRuby": 5937,
      "Maria": 5938,
      "Ġannoy": 5939,
      "ĠGranny": 5940,
      "Ġsituation": 5941,
      "Ġmineral": 5942,
      "Ġcontrol": 5943,
      "Ġluggage": 5944,
      "ĠTuesday": 5945,
      "Alex": 5946,
      "Ducky": 5947,
      "Ralph": 5948,
      "ae": 5949,
      "nes": 5950,
      "od": 5951,
      "sie": 5952,
      "uly": 5953,
      "yes": 5954,
      "Ġtig": 5955,
      "Ġtangled": 5956,
      "Ġaer": 5957,
      "Ġsi": 5958,
      "Ġwedding": 5959,
      "ednes": 5960,
      "Ġbank": 5961,
      "Ġcott": 5962,
      "Ġdarling": 5963,
      "Ġmall": 5964,
      "Ġmater": 5965,
      "arter": 5966,
      "iled": 5967,
      "Ġstern": 5968,
      "ntil": 5969,
      "ĠLarry": 5970,
      "ĠLizzie": 5971,
      "ĠBoth": 5972,
      "ĠBoun": 5973,
      "Ġlied": 5974,
      "Ġshall": 5975,
      "Ġsmarter": 5976,
      "Ġgoals": 5977,
      "Ġspill": 5978,
      "Ġspong": 5979,
      "ĠAbbie": 5980,
      "Ġcans": 5981,
      "opl": 5982,
      "opsy": 5983,
      "Ġmeow": 5984,
      "ĠWednes": 5985,
      "Ġwhatever": 5986,
      "ĠDot": 5987,
      "Ġtreehouse": 5988,
      "bbly": 5989,
      "ĠFiona": 5990,
      "Ġlotion": 5991,
      "Ġgrandp": 5992,
      "ÅĵNow": 5993,
      "Ġbully": 5994,
      "iley": 5995,
      "ĠCo": 5996,
      "Ġsnuck": 5997,
      "Ġstaying": 5998,
      "Ġconn": 5999,
      "Ġshoulders": 6000,
      "ĠPaula": 6001,
      "Ġkeeps": 6002,
      "Ġdelivery": 6003,
      "Ġteased": 6004,
      "Ġclimbs": 6005,
      "Ġworkers": 6006,
      "ĠJaney": 6007,
      "Ġusually": 6008,
      "Ġlistens": 6009,
      "Ġzipping": 6010,
      "Ġfiremen": 6011,
      "Afterwards": 6012,
      "Ġmagician": 6013,
      "Ġourselves": 6014,
      "Ġtouching": 6015,
      "Ġfoxes": 6016,
      "Ġelf": 6017,
      "Ġguests": 6018,
      "Ġmusician": 6019,
      "Ġproject": 6020,
      "Ġpockets": 6021,
      "Ġexpect": 6022,
      "Ġtrips": 6023,
      "Ġsorting": 6024,
      "Ġpleasure": 6025,
      "Ġspeaking": 6026,
      "Ġdecorated": 6027,
      "Ġchewing": 6028,
      "Ġbanged": 6029,
      "ĠAnne": 6030,
      "Ġtickle": 6031,
      "Ġpebbles": 6032,
      "Ġhorns": 6033,
      "Ġindeed": 6034,
      "Ġlibrarian": 6035,
      "Ġimproved": 6036,
      "Ġmelting": 6037,
      "Ġseconds": 6038,
      "Ġphotos": 6039,
      "Ġexperien": 6040,
      "Ġweeping": 6041,
      "Ġfrost": 6042,
      "Ġhallway": 6043,
      "Ġtwinkle": 6044,
      "Ġfireworks": 6045,
      "ĠSadly": 6046,
      "Ġaccomplish": 6047,
      "Ġfamiliar": 6048,
      "Ġtoddler": 6049,
      "Ġescaped": 6050,
      "Ġencouraging": 6051,
      "Ġmixture": 6052,
      "Ġunsure": 6053,
      "Ġresponded": 6054,
      "Ġtigers": 6055,
      "Ġaeropl": 6056,
      "Ġmateri": 6057,
      "Ġsponge": 6058,
      "ĠWednesday": 6059,
      "Ġgrandpare": 6060,
      "An": 6061,
      "Maggie": 6062,
      "Maddy": 6063,
      "Polly": 6064,
      "Sophie": 6065,
      "Tina": 6066,
      "dri": 6067,
      "go": 6068,
      "len": 6069,
      "mallow": 6070,
      "rr": 6071,
      "sity": 6072,
      "uri": 6073,
      "vas": 6074,
      "Ġti": 6075,
      "Ġwink": 6076,
      "Ġwine": 6077,
      "Ġfart": 6078,
      "Ġfuzzy": 6079,
      "ita": 6080,
      "Ġcust": 6081,
      "Ġheav": 6082,
      "Ġdared": 6083,
      "Ġdied": 6084,
      "Ġmice": 6085,
      "omers": 6086,
      "Ġocc": 6087,
      "immer": 6088,
      "onnie": 6089,
      "ĠThese": 6090,
      "Ġeast": 6091,
      "Ġstitches": 6092,
      "Ġsobbed": 6093,
      "Ġsoaked": 6094,
      "ads": 6095,
      "ĠBow": 6096,
      "ĠAd": 6097,
      "ĠAbby": 6098,
      "Ġtheirs": 6099,
      "Ġcanvas": 6100,
      "Ġbacked": 6101,
      "aren": 6102,
      "opes": 6103,
      "Ġnoon": 6104,
      "Ġmane": 6105,
      "ĠWin": 6106,
      "Ġcarriage": 6107,
      "elle": 6108,
      "Ġflat": 6109,
      "Ġvowed": 6110,
      "using": 6111,
      "Ġpoking": 6112,
      "Ġtruly": 6113,
      "obble": 6114,
      "ÅĵSure": 6115,
      "Ġopin": 6116,
      "Ġsled": 6117,
      "Ġslapped": 6118,
      "Ġbudge": 6119,
      "izon": 6120,
      "Ġrail": 6121,
      "Ġstolen": 6122,
      "Ġkeeper": 6123,
      "Ġreplac": 6124,
      "ĠGet": 6125,
      "ĠJohnson": 6126,
      "Ġcontest": 6127,
      "ĠSpike": 6128,
      "Ġstorekeeper": 6129,
      "shmallow": 6130,
      "Ġbehavi": 6131,
      "Ġpatience": 6132,
      "Ġpupp": 6133,
      "Ġamount": 6134,
      "Ġdarker": 6135,
      "Ġswims": 6136,
      "Ġsingle": 6137,
      "Ġmarshmallow": 6138,
      "ĠKelly": 6139,
      "Ġpaintbr": 6140,
      "Ġplanning": 6141,
      "Ġplanets": 6142,
      "Ġjoining": 6143,
      "Ġremembering": 6144,
      "ĠFlo": 6145,
      "Ġhighest": 6146,
      "Ġhorizon": 6147,
      "Ġscreaming": 6148,
      "Ġcoral": 6149,
      "Ġorganizing": 6150,
      "Ġsafari": 6151,
      "Ġshrinking": 6152,
      "Ġsorted": 6153,
      "ĠStop": 6154,
      "Ġdiving": 6155,
      "Ġsource": 6156,
      "Ġdinosaurs": 6157,
      "Ġreply": 6158,
      "ĠDaniel": 6159,
      "Ġarrows": 6160,
      "Ġrubs": 6161,
      "Ġseparated": 6162,
      "Ġcushions": 6163,
      "Ġartist": 6164,
      "Ġpedals": 6165,
      "Ġpears": 6166,
      "Ġbumps": 6167,
      "Ġshivered": 6168,
      "ably": 6169,
      "Ġstruggle": 6170,
      "Ġsuffered": 6171,
      "Ġshelves": 6172,
      "ibly": 6173,
      "Ġstroll": 6174,
      "Ġladybird": 6175,
      "...": 6176,
      "Ġquacked": 6177,
      "Ġuniversity": 6178,
      "Ġsquealed": 6179,
      "Ġresults": 6180,
      "iki": 6181,
      "Ġwidened": 6182,
      "Ġguys": 6183,
      "Ġscrubbed": 6184,
      "Leo": 6185,
      "Ġreleased": 6186,
      "Ġpancakes": 6187,
      "Ġvictory": 6188,
      "Ġafford": 6189,
      "Ġbridges": 6190,
      "Ġfrosting": 6191,
      "Ġaeroplane": 6192,
      "Ġreplaced": 6193,
      "Ġmarshmallows": 6194,
      "?'": 6195,
      "Cindy": 6196,
      "Dan": 6197,
      "Dave": 6198,
      "Danny": 6199,
      "Hannah": 6200,
      "come": 6201,
      "gare": 6202,
      "tuce": 6203,
      "uppy": 6204,
      "yan": 6205,
      "Ġ1": 6206,
      "hee": 6207,
      "hello": 6208,
      "Ġty": 6209,
      "Ġtax": 6210,
      "Ġsigned": 6211,
      "Ġsides": 6212,
      "Ġden": 6213,
      "Ġpout": 6214,
      "ishes": 6215,
      "ath": 6216,
      "ĠSophia": 6217,
      "veral": 6218,
      "owers": 6219,
      "utter": 6220,
      "Ġbelly": 6221,
      "Ġbeads": 6222,
      "Ġstair": 6223,
      "Ġramp": 6224,
      "Ġrumble": 6225,
      "rick": 6226,
      "ading": 6227,
      "ades": 6228,
      "ĠLuke": 6229,
      "Ġplaytime": 6230,
      "ĠBee": 6231,
      "ĠBinky": 6232,
      "Ġshown": 6233,
      "Ġshined": 6234,
      "Ġreass": 6235,
      "Ġneither": 6236,
      "Ġlosing": 6237,
      "Ġjugg": 6238,
      "Ġjunk": 6239,
      "Ġseveral": 6240,
      "Ġspook": 6241,
      "ĠAmelia": 6242,
      "icia": 6243,
      "Ġallow": 6244,
      "Ġaren": 6245,
      "asp": 6246,
      "Ġroots": 6247,
      "Ġsomebody": 6248,
      "Ġfault": 6249,
      "ĠEx": 6250,
      "Ġchip": 6251,
      "Ġswirl": 6252,
      "ĠFuzzy": 6253,
      "ĠFurry": 6254,
      "obody": 6255,
      "Ġtwenty": 6256,
      "ÅĵHi": 6257,
      "Ġargu": 6258,
      "Ġglitter": 6259,
      "Ġlettuce": 6260,
      "Ġstole": 6261,
      "ĠPuppy": 6262,
      "Ġcaused": 6263,
      "Ġunf": 6264,
      "Ġwonders": 6265,
      "Ġtexture": 6266,
      "Ġjoking": 6267,
      "Ġbeha": 6268,
      "Ġforgi": 6269,
      "Ġruining": 6270,
      "Ġprinting": 6271,
      "Ġsinger": 6272,
      "Ġcolder": 6273,
      "Ġhider": 6274,
      "ĠDoggy": 6275,
      "Ġmatched": 6276,
      "Ġyesterday": 6277,
      "iggy": 6278,
      "ĠFlopsy": 6279,
      "Ġdragons": 6280,
      "Ġprincesses": 6281,
      "Ġbuckets": 6282,
      "Ġmailed": 6283,
      "Ġmarkers": 6284,
      "Ġrainbows": 6285,
      "Ġinterested": 6286,
      "Ġhopeful": 6287,
      "Ġrockets": 6288,
      "Ġcape": 6289,
      "Ġlogs": 6290,
      "Ġclowns": 6291,
      "Ġcrackers": 6292,
      "Ġcopy": 6293,
      "Ġmayor": 6294,
      "Rex": 6295,
      "Ġsurrendered": 6296,
      "Ġwires": 6297,
      "ĠUntil": 6298,
      "Ġmagnets": 6299,
      "Ġsnakes": 6300,
      "Ġshivering": 6301,
      "Ġtempt": 6302,
      "Ġinclude": 6303,
      "ĠSharing": 6304,
      "ĠRobbie": 6305,
      "Ġherbs": 6306,
      "Ġincreased": 6307,
      "Ġdusty": 6308,
      "Ġcobwebs": 6309,
      "Ġsports": 6310,
      "ĠMegan": 6311,
      "ĠSadie": 6312,
      "Ġrusty": 6313,
      "Ġadults": 6314,
      "Sadie": 6315,
      "Ġsprinkles": 6316,
      "Ġdrifted": 6317,
      "Frank": 6318,
      "Ġcousin": 6319,
      "Ġlungs": 6320,
      "Ġfashion": 6321,
      "Ġseashells": 6322,
      "Ġsiren": 6323,
      "Ġfarther": 6324,
      "Ġoccas": 6325,
      "garet": 6326,
      "Ġtaxi": 6327,
      "Ġspooky": 6328,
      "Ġarguing": 6329,
      "Boo": 6330,
      "Bun": 6331,
      "Bunny": 6332,
      "Car": 6333,
      "Fred": 6334,
      "Tony": 6335,
      "ales": 6336,
      "band": 6337,
      "ew": 6338,
      "eep": 6339,
      "hive": 6340,
      "mas": 6341,
      "njoy": 6342,
      "sc": 6343,
      "the": 6344,
      "tier": 6345,
      "Ġtim": 6346,
      "Ġaut": 6347,
      "Ġtoe": 6348,
      "Ġbumpy": 6349,
      "Ġhus": 6350,
      "Ġfara": 6351,
      "Ġfreed": 6352,
      "itude": 6353,
      "Ġdet": 6354,
      "Ġwasted": 6355,
      "Ġpist": 6356,
      "Ġgon": 6357,
      "ences": 6358,
      "ĠSw": 6359,
      "ans": 6360,
      "Ġthir": 6361,
      "Ġthird": 6362,
      "lect": 6363,
      "eth": 6364,
      "espite": 6365,
      "Ġeight": 6366,
      "Ġbend": 6367,
      "Ġrising": 6368,
      "Ġsoak": 6369,
      "step": 6370,
      "choo": 6371,
      "ĠBoo": 6372,
      "Ġdoves": 6373,
      "Ġanger": 6374,
      "ĠMany": 6375,
      "rying": 6376,
      "Ġseats": 6377,
      "ĠJudy": 6378,
      "umm": 6379,
      "Ġscaring": 6380,
      "Ġscoop": 6381,
      "ashed": 6382,
      "ĠWally": 6383,
      "ĠWatch": 6384,
      "Ġdecl": 6385,
      "Ġchoo": 6386,
      "Ġswooped": 6387,
      "ĠDe": 6388,
      "ĠDolly": 6389,
      "ĠFox": 6390,
      "Ġgrabbing": 6391,
      "Ġpeel": 6392,
      "Ġtweet": 6393,
      "Ġquilt": 6394,
      "Ġstrings": 6395,
      "Ġprettier": 6396,
      "ĠPam": 6397,
      "ĠPoppy": 6398,
      "ĠPinky": 6399,
      "Ġdragged": 6400,
      "Josh": 6401,
      "Ġfoc": 6402,
      "Ġwrist": 6403,
      "Ġteasp": 6404,
      "ĠRicky": 6405,
      "ĠRiley": 6406,
      "Ġbeloved": 6407,
      "Ġfoods": 6408,
      "ĠNina": 6409,
      "ĠNana": 6410,
      "Ġusual": 6411,
      "Ġrainco": 6412,
      "ĠSpeed": 6413,
      "Ġdresser": 6414,
      "Ġsteep": 6415,
      "Ġsteady": 6416,
      "ĠDog": 6417,
      "Ġsecure": 6418,
      "Ġtails": 6419,
      "Ġgrowl": 6420,
      "ĠTodd": 6421,
      "Ġbars": 6422,
      "Ġattack": 6423,
      "ments": 6424,
      "Ġbeehive": 6425,
      "ĠFlora": 6426,
      "Ġjudge": 6427,
      "Ġnapkins": 6428,
      "Ġdesigned": 6429,
      "hog": 6430,
      "Ġexpress": 6431,
      "Ġkeys": 6432,
      "Ġembarrass": 6433,
      "Ġrecor": 6434,
      "Ġspreading": 6435,
      "Steve": 6436,
      "Ġseeker": 6437,
      "Ġhonk": 6438,
      "Ġhonked": 6439,
      "Ġblows": 6440,
      "Ġnervously": 6441,
      "ĠBeing": 6442,
      "ĠOut": 6443,
      "Ġprice": 6444,
      "Ġsupplies": 6445,
      "Ġsalty": 6446,
      "Ġcracked": 6447,
      "Ġperforming": 6448,
      "Ġscratched": 6449,
      "ĠZoom": 6450,
      "Ġsoapy": 6451,
      "ĠBruce": 6452,
      "Ġmovies": 6453,
      "Ġstripes": 6454,
      "Ġscrewdri": 6455,
      "Ġstretching": 6456,
      "Ġavoid": 6457,
      "Ġvideos": 6458,
      "Ġhedgehog": 6459,
      "ĠShar": 6460,
      "ĠRover": 6461,
      "Ġrewarded": 6462,
      "Ġcomplaining": 6463,
      "Ġhesitant": 6464,
      "Ġtwinkling": 6465,
      "Ġstomped": 6466,
      "Ġintroduce": 6467,
      "Ġemerged": 6468,
      "Ġdiscussing": 6469,
      "lsie": 6470,
      "Betty": 6471,
      "Ġgranted": 6472,
      "Clara": 6473,
      "ĠSimon": 6474,
      "Ġfirmly": 6475,
      "Ġcalf": 6476,
      "Ġbleeding": 6477,
      "Ġchefs": 6478,
      "Ġcrumbs": 6479,
      "Ġcupcake": 6480,
      "urious": 6481,
      "Ġtipt": 6482,
      "immering": 6483,
      "ĠAdam": 6484,
      "Ġpaintbrush": 6485,
      "Ġhusband": 6486,
      "Ġfaraway": 6487,
      "Ġpistol": 6488,
      "Ġgonna": 6489,
      "Ġthirty": 6490,
      "Ġteaspoon": 6491,
      "Ġraincoat": 6492,
      "Ġscrewdriver": 6493,
      "Any": 6494,
      "During": 6495,
      "Fin": 6496,
      "For": 6497,
      "Honey": 6498,
      "Henry": 6499,
      "Jess": 6500,
      "Kayla": 6501,
      "Milly": 6502,
      "Mira": 6503,
      "Time": 6504,
      "Ye": 6505,
      "ael": 6506,
      "aven": 6507,
      "aired": 6508,
      "bably": 6509,
      "eel": 6510,
      "no": 6511,
      "oor": 6512,
      "pit": 6513,
      "rin": 6514,
      "vest": 6515,
      "well": 6516,
      "water": 6517,
      "Ġting": 6518,
      "Ġtil": 6519,
      "Ġboo": 6520,
      "Ġbunch": 6521,
      "erm": 6522,
      "Ġdipped": 6523,
      "Ġdaring": 6524,
      "Ġmer": 6525,
      "Ġmister": 6526,
      "ĠTara": 6527,
      "ĠTaking": 6528,
      "Ġgest": 6529,
      "Ġgerm": 6530,
      "ĠSun": 6531,
      "ĠSund": 6532,
      "iment": 6533,
      "ĠHarry": 6534,
      "igning": 6535,
      "Ġrisk": 6536,
      "Ġropes": 6537,
      "Ġonward": 6538,
      "Ġplain": 6539,
      "Ġyouth": 6540,
      "ĠListen": 6541,
      "ĠmomÃ¢": 6542,
      "Ġforty": 6543,
      "unes": 6544,
      "lyn": 6545,
      "child": 6546,
      "Ġshave": 6547,
      "Ġneare": 6548,
      "Ġnect": 6549,
      "ĠMila": 6550,
      "Ġloc": 6551,
      "Ġspy": 6552,
      "Ġspikes": 6553,
      "icorn": 6554,
      "ichell": 6555,
      "Ġcanes": 6556,
      "icked": 6557,
      "Ġfeast": 6558,
      "Ġfaced": 6559,
      "Ġhomework": 6560,
      "Ġflight": 6561,
      "Ġflap": 6562,
      "ĠEnjoy": 6563,
      "Ġprank": 6564,
      "Ġprunes": 6565,
      "usty": 6566,
      "anta": 6567,
      "ista": 6568,
      "istmas": 6569,
      "ĠFire": 6570,
      "Ġpecked": 6571,
      "Ġtramp": 6572,
      "Ġtwice": 6573,
      "ÅĵWell": 6574,
      "ilda": 6575,
      "LetÃ¢": 6576,
      "Ġlets": 6577,
      "ĠPrin": 6578,
      "Ġunicorn": 6579,
      "ĠGemma": 6580,
      "acob": 6581,
      "Ġafterwards": 6582,
      "ĠRyan": 6583,
      "Ġnearly": 6584,
      "Ġbroom": 6585,
      "Ġtraps": 6586,
      "Ġstrongest": 6587,
      "Ġsqueezing": 6588,
      "Ġowners": 6589,
      "Ġsticking": 6590,
      "Ġrestored": 6591,
      "Ġpatted": 6592,
      "Ġleast": 6593,
      "Ġsweeties": 6594,
      "Ġblocking": 6595,
      "Ġslower": 6596,
      "Ġwears": 6597,
      "Ġdrives": 6598,
      "Ġmarriage": 6599,
      "Ġpapa": 6600,
      "Ġbows": 6601,
      "ichael": 6602,
      "Ġreads": 6603,
      "Ġpets": 6604,
      "Ġbookshe": 6605,
      "Ġbelieving": 6606,
      "Ġpolishing": 6607,
      "Ġgrowling": 6608,
      "Ġprove": 6609,
      "Ġprobably": 6610,
      "Ġsits": 6611,
      "Ġscreams": 6612,
      "Ġpacking": 6613,
      "Ġmarker": 6614,
      "Ġforgetting": 6615,
      "Ġmisses": 6616,
      "Ġfits": 6617,
      "Ġpassen": 6618,
      "Ġtearing": 6619,
      "ĠThanks": 6620,
      "Goodnight": 6621,
      "Ġprotecting": 6622,
      "Ġcheering": 6623,
      "Ġpleaded": 6624,
      "ĠBea": 6625,
      "ĠBeep": 6626,
      "Ġprick": 6627,
      "Ġtested": 6628,
      "Ġflags": 6629,
      "Ġtickled": 6630,
      "Ġgrandchild": 6631,
      "Ġpeeking": 6632,
      "ĠAlan": 6633,
      "ĠAlison": 6634,
      "Ġjackets": 6635,
      "Ġrepaired": 6636,
      "Ġglasses": 6637,
      "Ġpumpkins": 6638,
      "Ġcomplained": 6639,
      "Chloe": 6640,
      "cuse": 6641,
      "Ġpaddle": 6642,
      "ĠCatty": 6643,
      "Ġsweep": 6644,
      "Ġprovided": 6645,
      "Ġfroze": 6646,
      "Ġrequested": 6647,
      "Ġpandas": 6648,
      "ĠBirdie": 6649,
      "Ġdiscussed": 6650,
      "Ġinstrum": 6651,
      "Ġincluding": 6652,
      "Ġribbons": 6653,
      "ĠCarol": 6654,
      "Ġefforts": 6655,
      "ĠVroom": 6656,
      "Excited": 6657,
      "ĠMatt": 6658,
      "Ġflavor": 6659,
      "Ġresponsible": 6660,
      "Ġtravelling": 6661,
      "Ġoperation": 6662,
      "ĠChristmas": 6663,
      "Ġnodding": 6664,
      "annon": 6665,
      "Quackers": 6666,
      "Ġconnected": 6667,
      "Ġaccomplishment": 6668,
      "Ġpuppies": 6669,
      "athan": 6670,
      "Ġtiptoed": 6671,
      "Ġnectar": 6672,
      "ichelle": 6673,
      "Ġtrampoline": 6674,
      "Bu": 6675,
      "Bill": 6676,
      "Ell": 6677,
      "Ella": 6678,
      "Ha": 6679,
      "Hop": 6680,
      "Paul": 6681,
      "Take": 6682,
      "aster": 6683,
      "found": 6684,
      "form": 6685,
      "ibbit": 6686,
      "iasm": 6687,
      "lves": 6688,
      "mered": 6689,
      "riger": 6690,
      "spe": 6691,
      "va": 6692,
      "ÃĤ": 6693,
      "Ġtar": 6694,
      "Ġwest": 6695,
      "Ġwobble": 6696,
      "Ġhour": 6697,
      "ouie": 6698,
      "ouble": 6699,
      "Ġfant": 6700,
      "Ġlimes": 6701,
      "Ġcough": 6702,
      "Ġcoup": 6703,
      "Ġheight": 6704,
      "Ġdots": 6705,
      "Ġpouch": 6706,
      "inger": 6707,
      "ĠTy": 6708,
      "ĠTwo": 6709,
      "arles": 6710,
      "enise": 6711,
      "ĠSanta": 6712,
      "Ġthreat": 6713,
      "lem": 6714,
      "ĠHugs": 6715,
      "Ġinter": 6716,
      "Ġinsp": 6717,
      "esome": 6718,
      "cky": 6719,
      "Ġstall": 6720,
      "Ġrip": 6721,
      "Ġhissed": 6722,
      "rie": 6723,
      "Ġonions": 6724,
      "Ġplayers": 6725,
      "Ġplayroom": 6726,
      "Ġwept": 6727,
      "united": 6728,
      "ĠBo": 6729,
      "ĠBaa": 6730,
      "allowed": 6731,
      "sequ": 6732,
      "Ġreunited": 6733,
      "ĠMoon": 6734,
      "ĠMaisy": 6735,
      "ĠMichael": 6736,
      "Ġboards": 6737,
      "ĠJamie": 6738,
      "ickey": 6739,
      "Ġscamp": 6740,
      "Ġscales": 6741,
      "Ġfever": 6742,
      "iece": 6743,
      "Ġcoach": 6744,
      "Ġlap": 6745,
      "Ġflown": 6746,
      "Ġdecides": 6747,
      "Ġsweat": 6748,
      "Ġswallowed": 6749,
      "Ġeverybody": 6750,
      "Ġblink": 6751,
      "Ġyourselves": 6752,
      "Ġknees": 6753,
      "Ġpeck": 6754,
      "maid": 6755,
      "ÅĵWow": 6756,
      "ÅĵHey": 6757,
      "ÅĵCome": 6758,
      "ÅĵSee": 6759,
      "Ġhandful": 6760,
      "ollie": 6761,
      "Ġslither": 6762,
      "Ġbraver": 6763,
      "Ġsnugg": 6764,
      "Ġremoved": 6765,
      "Ġconqu": 6766,
      "Ġconsequ": 6767,
      "ĠPut": 6768,
      "ĠPudd": 6769,
      "Ġcausing": 6770,
      "Ġbadger": 6771,
      "Ġforehead": 6772,
      "Ġdollhouse": 6773,
      "lescope": 6774,
      "Ġtelescope": 6775,
      "Ġcoloring": 6776,
      "ĠNobody": 6777,
      "Ġsquish": 6778,
      "Ġheading": 6779,
      "Jacky": 6780,
      "Ġbaked": 6781,
      "Ġcreativ": 6782,
      "Ġlighter": 6783,
      "Ġtricked": 6784,
      "Ġlearns": 6785,
      "Ġtallest": 6786,
      "Ġhides": 6787,
      "Ġbuying": 6788,
      "ĠKeep": 6789,
      "Ġcompared": 6790,
      "Ġpolished": 6791,
      "Ġpolitely": 6792,
      "Ġtreated": 6793,
      "Ġdeser": 6794,
      "Ġpeacefully": 6795,
      "Ġbreathed": 6796,
      "Ġspoonful": 6797,
      "Ġstreets": 6798,
      "Ġburrow": 6799,
      "Ġimagining": 6800,
      "ĠWithout": 6801,
      "Ġmiles": 6802,
      "Ġhonking": 6803,
      "Ġwipes": 6804,
      "Ġroads": 6805,
      "ĠLeave": 6806,
      "Ġedges": 6807,
      "Ġaddress": 6808,
      "Ġknights": 6809,
      "ĠMargaret": 6810,
      "ĠClown": 6811,
      "Ġforks": 6812,
      "Ġprayer": 6813,
      "Ġpreparing": 6814,
      "Ġawesome": 6815,
      "ĠAlthough": 6816,
      "Ġrecorded": 6817,
      "years": 6818,
      "Ġradishes": 6819,
      "ĠPeanut": 6820,
      "Ġleaning": 6821,
      "Remy": 6822,
      "Ġcomforting": 6823,
      "Ġgems": 6824,
      "Ġscrews": 6825,
      "Ġsurfboard": 6826,
      "Ġrefriger": 6827,
      "Ġenthusiasm": 6828,
      "rnie": 6829,
      "Ġrecommended": 6830,
      "Ġadmiration": 6831,
      "Ġrefreshing": 6832,
      "Ġdelayed": 6833,
      "Ġtraveled": 6834,
      "Ġscurrying": 6835,
      "Ġregretted": 6836,
      "Ġsighs": 6837,
      "iko": 6838,
      "Ġpupils": 6839,
      "Excuse": 6840,
      "Sadly": 6841,
      "Ġwarnings": 6842,
      "Ġpunishment": 6843,
      "Ġtravelled": 6844,
      "ĠJeff": 6845,
      "Ġwaffles": 6846,
      "Ġannoyed": 6847,
      "Ġcottage": 6848,
      "Ġsternly": 6849,
      "ĠDotty": 6850,
      "ĠCoco": 6851,
      "Ġgrandparents": 6852,
      "Ġoccasion": 6853,
      "Ġautom": 6854,
      "Ġdeclared": 6855,
      "eeling": 6856,
      "Ġmermaid": 6857,
      "Ġgesture": 6858,
      "ĠSunday": 6859,
      "Ġbookshelf": 6860,
      "Ġprickly": 6861,
      "Ġfantastic": 6862,
      "Ġcouple": 6863,
      "Ġscampered": 6864,
      "Ġcreativity": 6865,
      "Ġrefrigerator": 6866,
      "?!\"": 6867,
      "AA": 6868,
      "Back": 6869,
      "Buzz": 6870,
      "Great": 6871,
      "Jerry": 6872,
      "Jamie": 6873,
      "Lilly": 6874,
      "Miss": 6875,
      "Papa": 6876,
      "Suzie": 6877,
      "Tr": 6878,
      "Tilly": 6879,
      "Whee": 6880,
      "bird": 6881,
      "hind": 6882,
      "jo": 6883,
      "ru": 6884,
      "rat": 6885,
      "rily": 6886,
      "uing": 6887,
      "zie": 6888,
      "Ãĥ": 6889,
      "ino": 6890,
      "Ġhitting": 6891,
      "Ġlined": 6892,
      "Ġdie": 6893,
      "Ġmitten": 6894,
      "ĠTabby": 6895,
      "idence": 6896,
      "enzie": 6897,
      "ĠSa": 6898,
      "Ġthud": 6899,
      "ley": 6900,
      "ĠHolly": 6901,
      "oto": 6902,
      "cker": 6903,
      "Ġech": 6904,
      "Ġrus": 6905,
      "ppa": 6906,
      "Ġwithin": 6907,
      "ĠthatÃ¢": 6908,
      "Ġkites": 6909,
      "ackenzie": 6910,
      "Ġnotes": 6911,
      "ĠMo": 6912,
      "Ġloop": 6913,
      "Ġgobbled": 6914,
      "ĠJan": 6915,
      "ĠJelly": 6916,
      "artled": 6917,
      "âĤ¬,": 6918,
      "Ġstartled": 6919,
      "ongrat": 6920,
      "Ġfact": 6921,
      "Ġnewfound": 6922,
      "ssel": 6923,
      "Ġflas": 6924,
      "Ġgoodnight": 6925,
      "ĠYouÃ¢": 6926,
      "ĠDina": 6927,
      "bbling": 6928,
      "Ġdads": 6929,
      "Ġposs": 6930,
      "Ġgrain": 6931,
      "Ġpeep": 6932,
      "obile": 6933,
      "Ġexplor": 6934,
      "aura": 6935,
      "ĠEverybody": 6936,
      "Ġovercome": 6937,
      "Ġhanding": 6938,
      "ĠJose": 6939,
      "ĠJosie": 6940,
      "Ġwatering": 6941,
      "othy": 6942,
      "ears": 6943,
      "Ġuntie": 6944,
      "Ġbravest": 6945,
      "Ġcub": 6946,
      "Ġfinal": 6947,
      "Ġconfu": 6948,
      "Ġconvers": 6949,
      "Ġwindy": 6950,
      "Ġthrown": 6951,
      "Ġfond": 6952,
      "ĠRemember": 6953,
      "ĠRollie": 6954,
      "ĠRiko": 6955,
      "Ġdev": 6956,
      "ngie": 6957,
      "Ġwarmly": 6958,
      "Ġruin": 6959,
      "Ġruler": 6960,
      "Ġpuff": 6961,
      "Ġwoodpe": 6962,
      "Ġstew": 6963,
      "Ġmonths": 6964,
      "ĠThatÃ¢": 6965,
      "boat": 6966,
      "Ġbatt": 6967,
      "Ġfloors": 6968,
      "ĠKaren": 6969,
      "asha": 6970,
      "ĠGrand": 6971,
      "Ġplans": 6972,
      "Ġpurr": 6973,
      "iggly": 6974,
      "Ġsisters": 6975,
      "Ġhealing": 6976,
      "Ġreturning": 6977,
      "Ġacting": 6978,
      "Ġactive": 6979,
      "Ġbandages": 6980,
      "Ġsolving": 6981,
      "Ġwrapping": 6982,
      "Ġsplashes": 6983,
      "Ġmatters": 6984,
      "Ġtroubles": 6985,
      "ĠStella": 6986,
      "Ġexamining": 6987,
      "Ġgenie": 6988,
      "Ġwandering": 6989,
      "Ġleading": 6990,
      "Ġantic": 6991,
      "Ġperformed": 6992,
      "Ġwishing": 6993,
      "ippin": 6994,
      "Ġsuggest": 6995,
      "Ġclearly": 6996,
      "Ġawake": 6997,
      "Ġcombed": 6998,
      "Ġblooming": 6999,
      "Ġunlo": 7000,
      "Ġrepeated": 7001,
      "Ġartwork": 7002,
      "Ġzebras": 7003,
      "Ġbasement": 7004,
      "Chirp": 7005,
      "Ġcrystals": 7006,
      "Ġsneaked": 7007,
      "Ġappreciated": 7008,
      "Ġobserved": 7009,
      "Ġstealing": 7010,
      "Ġneatly": 7011,
      "ĠIsn": 7012,
      "ĠIsland": 7013,
      "ĠElle": 7014,
      "Ġstroked": 7015,
      "Tweetie": 7016,
      "Ġcheeks": 7017,
      "ĠBye": 7018,
      "Mikey": 7019,
      "Quick": 7020,
      "ĠAnother": 7021,
      "Ġaccomplished": 7022,
      "ĠNothing": 7023,
      "ĠHappyland": 7024,
      "ĠJonas": 7025,
      "ĠRobin": 7026,
      "Ġfetch": 7027,
      "Ġcommun": 7028,
      "Ġconcert": 7029,
      "Ġexperienced": 7030,
      "Ġmaterials": 7031,
      "Ġbehavior": 7032,
      "Ġjuggling": 7033,
      "Yeah": 7034,
      "Ġpassengers": 7035,
      "Ġconsequences": 7036,
      "Ġautomobile": 7037,
      "rupt": 7038,
      "ongratul": 7039,
      "Ġwoodpecker": 7040,
      "Baby": 7041,
      "Ew": 7042,
      "Frog": 7043,
      "Have": 7044,
      "Liz": 7045,
      "Listen": 7046,
      "Millie": 7047,
      "Nina": 7048,
      "Our": 7049,
      "Ted": 7050,
      "Uh": 7051,
      "Very": 7052,
      "boo": 7053,
      "bro": 7054,
      "boy": 7055,
      "cl": 7056,
      "cter": 7057,
      "cie": 7058,
      "emy": 7059,
      "fly": 7060,
      "father": 7061,
      "gain": 7062,
      "hh": 7063,
      "just": 7064,
      "lay": 7065,
      "mark": 7066,
      "nk": 7067,
      "rona": 7068,
      "ther": 7069,
      "ux": 7070,
      "ulp": 7071,
      "while": 7072,
      "yla": 7073,
      "yond": 7074,
      "ylves": 7075,
      "ĠQuackers": 7076,
      "Ġsens": 7077,
      "Ġbak": 7078,
      "itched": 7079,
      "Ġlower": 7080,
      "Ġlux": 7081,
      "Ġcash": 7082,
      "Ġmes": 7083,
      "Ġpies": 7084,
      "Ġpours": 7085,
      "Ġodd": 7086,
      "ĠTe": 7087,
      "ĠTake": 7088,
      "ĠTia": 7089,
      "ĠToto": 7090,
      "ility": 7091,
      "atur": 7092,
      "athy": 7093,
      "atches": 7094,
      "Ġsank": 7095,
      "ĠSn": 7096,
      "ĠSleep": 7097,
      "ĠSweet": 7098,
      "ĠSha": 7099,
      "anwhile": 7100,
      "Ġund": 7101,
      "oosh": 7102,
      "Ġbeyond": 7103,
      "Ġrather": 7104,
      "Ġplucked": 7105,
      "ĠLaura": 7106,
      "storm": 7107,
      "itted": 7108,
      "herry": 7109,
      "ĠBust": 7110,
      "ĠMel": 7111,
      "ĠMart": 7112,
      "ĠMag": 7113,
      "ĠMouse": 7114,
      "ĠMona": 7115,
      "ĠMickey": 7116,
      "ĠgirlÃ¢": 7117,
      "ĠJason": 7118,
      "ĠJacob": 7119,
      "Ġexcept": 7120,
      "urpr": 7121,
      "urball": 7122,
      "ĠAc": 7123,
      "ĠAny": 7124,
      "Ġhelpers": 7125,
      "Ġscent": 7126,
      "Ġsculp": 7127,
      "Ġroamed": 7128,
      "ongo": 7129,
      "ĠWas": 7130,
      "ĠWiggly": 7131,
      "Ġage": 7132,
      "quirrel": 7133,
      "ssy": 7134,
      "Ġflapping": 7135,
      "ĠElsie": 7136,
      "Ġgoodby": 7137,
      "ĠDenise": 7138,
      "Ġblond": 7139,
      "Ġposit": 7140,
      "ĠFor": 7141,
      "Ġcatches": 7142,
      "ively": 7143,
      "Ġenemy": 7144,
      "Ġskill": 7145,
      "ÅĵBut": 7146,
      "Ġhandy": 7147,
      "Ġsmallest": 7148,
      "inkled": 7149,
      "Ġneedles": 7150,
      "Ġflowing": 7151,
      "Those": 7152,
      "Thomas": 7153,
      "Ġwobbly": 7154,
      "Ġsneezing": 7155,
      "Ġglimmering": 7156,
      "Ġstays": 7157,
      "ĠPippin": 7158,
      "Ġcafe": 7159,
      "Ġdolly": 7160,
      "Ġunco": 7161,
      "ĠRain": 7162,
      "Ġcuriously": 7163,
      "ĠNathan": 7164,
      "Ġrainy": 7165,
      "Ġcreations": 7166,
      "Ġsmelling": 7167,
      "Ġfairies": 7168,
      "Ġmarked": 7169,
      "avin": 7170,
      "Ġcrashing": 7171,
      "Ġsailboat": 7172,
      "Ġsnowball": 7173,
      "ĠWhatÃ¢": 7174,
      "Ġrolls": 7175,
      "ugging": 7176,
      "Ġplanting": 7177,
      "Ġheartbro": 7178,
      "Ġhealth": 7179,
      "Ġtownspe": 7180,
      "Ġalongside": 7181,
      "Ġdesper": 7182,
      "ails": 7183,
      "Ġpennies": 7184,
      "Ġbowls": 7185,
      "Ġdrying": 7186,
      "Ġbreathing": 7187,
      "Ġlifting": 7188,
      "Ġafar": 7189,
      "Ġchopped": 7190,
      "Ġchopping": 7191,
      "Ġcowboy": 7192,
      "Ġreminding": 7193,
      "Everything": 7194,
      "Ġmotion": 7195,
      "Ġcalmed": 7196,
      "Ġcalmly": 7197,
      "Ġfootstep": 7198,
      "Ġstirs": 7199,
      "Ġdived": 7200,
      "ĠBecky": 7201,
      "Ġfears": 7202,
      "iana": 7203,
      "Todd": 7204,
      "Ġleads": 7205,
      "Ġscratches": 7206,
      "ĠClar": 7207,
      "ĠClumsy": 7208,
      "Ġcrowns": 7209,
      "Ġtunnels": 7210,
      "Ġgrandfather": 7211,
      "Meow": 7212,
      "ĠAlong": 7213,
      "Ġtwisting": 7214,
      "Ġbelts": 7215,
      "Ġleopards": 7216,
      "ĠBloom": 7217,
      "Ġborrowed": 7218,
      "rops": 7219,
      "Ġclaps": 7220,
      "Ġbeetles": 7221,
      "faction": 7222,
      "Ġoysters": 7223,
      "Ġsurfing": 7224,
      "Ġmushrooms": 7225,
      "Ġresisted": 7226,
      "ĠFinny": 7227,
      "ĠTrista": 7228,
      "Ġinsisting": 7229,
      "Ġdelivering": 7230,
      "Ġlending": 7231,
      "ĠShannon": 7232,
      "Ġquarreling": 7233,
      "ĠIsabel": 7234,
      "Ġwhispering": 7235,
      "Ġspeaker": 7236,
      "Ġstudents": 7237,
      "Ġsneaky": 7238,
      "ĠMaya": 7239,
      "Ġyielded": 7240,
      "ĠRussel": 7241,
      "Ġsqueak": 7242,
      "Jenna": 7243,
      "Ġrustling": 7244,
      "Ġdirect": 7245,
      "Ġconfidence": 7246,
      "ĠPatrick": 7247,
      "Ġsatisfaction": 7248,
      "Ġobeyed": 7249,
      "ĠMatty": 7250,
      "Ġfamilies": 7251,
      "Freddy": 7252,
      "Ġwiggled": 7253,
      "Ġcousins": 7254,
      "ĠGoodbye": 7255,
      "ĠChris": 7256,
      "Ġswayed": 7257,
      "Ġastrona": 7258,
      "Ġgreeted": 7259,
      "Ġexplorers": 7260,
      "Ġheavier": 7261,
      "Ġopinion": 7262,
      "Ġtimer": 7263,
      "Ġfreedom": 7264,
      "ĠDebby": 7265,
      "Ġrecorder": 7266,
      "Ġtilted": 7267,
      "Ġgerms": 7268,
      "Ġlocal": 7269,
      "Ġtarget": 7270,
      "Ġsnuggle": 7271,
      "Ġconquered": 7272,
      "Ġrushing": 7273,
      "Ġpeeped": 7274,
      "Ġexploration": 7275,
      "ylvester": 7276,
      "Ġbakery": 7277,
      "Ġmesmer": 7278,
      "ĠBuster": 7279,
      "Ġsculpture": 7280,
      "Ġgoodbyes": 7281,
      "Ġheartbroken": 7282,
      "Ġtownspeople": 7283,
      "Ġfootsteps": 7284,
      "Ġastronaut": 7285,
      "!'.": 7286,
      "--": 7287,
      "Abby": 7288,
      "Abigail": 7289,
      "Bad": 7290,
      "Claire": 7291,
      "Fine": 7292,
      "Feeling": 7293,
      "Harry": 7294,
      "Kim": 7295,
      "May": 7296,
      "Mat": 7297,
      "Mimi": 7298,
      "Nemo": 7299,
      "Ru": 7300,
      "Run": 7301,
      "Some": 7302,
      "Sophia": 7303,
      "but": 7304,
      "belt": 7305,
      "book": 7306,
      "bank": 7307,
      "eke": 7308,
      "hley": 7309,
      "ker": 7310,
      "lers": 7311,
      "munk": 7312,
      "mates": 7313,
      "nif": 7314,
      "site": 7315,
      "tons": 7316,
      "vince": 7317,
      "wig": 7318,
      "wise": 7319,
      "zing": 7320,
      "ĠY": 7321,
      "Ġtuck": 7322,
      "Ġties": 7323,
      "Ġaud": 7324,
      "Ġhoo": 7325,
      "Ġhood": 7326,
      "Ġwadd": 7327,
      "rees": 7328,
      "Ġfare": 7329,
      "Ġfaded": 7330,
      "its": 7331,
      "Ġlent": 7332,
      "Ġcause": 7333,
      "Ġcongratul": 7334,
      "Ġheaven": 7335,
      "eri": 7336,
      "Ġdam": 7337,
      "Ġdep": 7338,
      "Ġmunch": 7339,
      "Ġoh": 7340,
      "Ġopp": 7341,
      "ĠTor": 7342,
      "ĠTry": 7343,
      "arper": 7344,
      "Ġgall": 7345,
      "Ġgross": 7346,
      "ids": 7347,
      "aty": 7348,
      "atitude": 7349,
      "enel": 7350,
      "Ġsale": 7351,
      "Ġsadd": 7352,
      "Ġnine": 7353,
      "Ġnast": 7354,
      "ĠSid": 7355,
      "ĠSorry": 7356,
      "ĠSquirrel": 7357,
      "ĠSylvester": 7358,
      "aning": 7359,
      "anes": 7360,
      "orful": 7361,
      "onished": 7362,
      "llow": 7363,
      "leaning": 7364,
      "ĠHoppy": 7365,
      "otted": 7366,
      "Ġev": 7367,
      "Ġease": 7368,
      "ooking": 7369,
      "Ġyounger": 7370,
      "ĠLi": 7371,
      "Ġweeke": 7372,
      "ching": 7373,
      "ĠBri": 7374,
      "ĠBirthday": 7375,
      "ĠBumpy": 7376,
      "ĠBonnie": 7377,
      "ĠBongo": 7378,
      "Ġshoo": 7379,
      "endy": 7380,
      "Ġdod": 7381,
      "Ġrefu": 7382,
      "Ġreason": 7383,
      "ĠMan": 7384,
      "ĠMother": 7385,
      "ĠMicky": 7386,
      "ĠMira": 7387,
      "ĠMichelle": 7388,
      "ĠMeri": 7389,
      "Ġseven": 7390,
      "ĠJet": 7391,
      "ĠJana": 7392,
      "Ġspices": 7393,
      "Ġexch": 7394,
      "indrops": 7395,
      "aint": 7396,
      "ica": 7397,
      "romise": 7398,
      "Ġbackwards": 7399,
      "Ġclues": 7400,
      "ops": 7401,
      "Ġleather": 7402,
      "Ġmemb": 7403,
      "Ġfailed": 7404,
      "Ġranger": 7405,
      "Ġcode": 7406,
      "ĠButtons": 7407,
      "ept": 7408,
      "Ġwhoever": 7409,
      "ĠErnie": 7410,
      "Ġchara": 7411,
      "Ġcharge": 7412,
      "Ġgoodies": 7413,
      "Ġswept": 7414,
      "ĠDoug": 7415,
      "ĠDespite": 7416,
      "ĠDiana": 7417,
      "Ġthanking": 7418,
      "Ġpose": 7419,
      "antelle": 7420,
      "Ġthoughts": 7421,
      "aple": 7422,
      "Ġpeas": 7423,
      "retty": 7424,
      "Ġtwin": 7425,
      "ÅĵThe": 7426,
      "ÅĵMaybe": 7427,
      "ÅĵOf": 7428,
      "ÅĵMummy": 7429,
      "ÅĵWhere": 7430,
      "ĠMaxi": 7431,
      "ĠJackÃ¢": 7432,
      "Ġwaters": 7433,
      "Ġbeaver": 7434,
      "Ġeats": 7435,
      "Ġgratitude": 7436,
      "Ġraindrops": 7437,
      "ĠChe": 7438,
      "ĠCol": 7439,
      "ĠCarl": 7440,
      "ĠCherry": 7441,
      "Ġcleared": 7442,
      "Ġarr": 7443,
      "Ġfinishing": 7444,
      "Ġunderwater": 7445,
      "Ġconfl": 7446,
      "Ġconvince": 7447,
      "ĠPit": 7448,
      "ĠPip": 7449,
      "ipation": 7450,
      "Ġbadge": 7451,
      "Ġdoorway": 7452,
      "Ġdrawn": 7453,
      "Ġunw": 7454,
      "Ġwrinkled": 7455,
      "Ġrocking": 7456,
      "acle": 7457,
      "Ġjoked": 7458,
      "ĠRita": 7459,
      "ĠRusty": 7460,
      "Ġdef": 7461,
      "Ġdefe": 7462,
      "Ġbrightest": 7463,
      "Ġbusiness": 7464,
      "ĠAshley": 7465,
      "Ġnights": 7466,
      "shadow": 7467,
      "Ġfires": 7468,
      "Ġsandy": 7469,
      "Ġsweetest": 7470,
      "Ġamong": 7471,
      "Ġdraws": 7472,
      "Ġblocked": 7473,
      "ĠAfterwards": 7474,
      "rench": 7475,
      "Ġparties": 7476,
      "Ġsnowfl": 7477,
      "Ġcloudy": 7478,
      "Ġjoyfully": 7479,
      "Ġpetting": 7480,
      "Ġjobs": 7481,
      "Ġpurp": 7482,
      "brina": 7483,
      "Ġdragonfly": 7484,
      "Ġpots": 7485,
      "Ġdespite": 7486,
      "astated": 7487,
      "ounced": 7488,
      "Ġaction": 7489,
      "Ġwraps": 7490,
      "Ġpuzzled": 7491,
      "Ġdriveway": 7492,
      "Ġrespected": 7493,
      "Ġtidying": 7494,
      "ĠBehind": 7495,
      "Ġcooper": 7496,
      "ceptor": 7497,
      "Ġcrossing": 7498,
      "Ġseatbelt": 7499,
      "Ġnecklaces": 7500,
      "Ġfeeding": 7501,
      "Ġclassmates": 7502,
      "Ġfrowning": 7503,
      "Ġdrums": 7504,
      "Ġwealth": 7505,
      "queak": 7506,
      "Ġpraying": 7507,
      "ĠBrother": 7508,
      "Ġawo": 7509,
      "Ġcrabs": 7510,
      "Ġcrawls": 7511,
      "ĠAli": 7512,
      "azzy": 7513,
      "Ġmisch": 7514,
      "Ġcovers": 7515,
      "Ġcovering": 7516,
      "ĠPeppa": 7517,
      "Ġpays": 7518,
      "Ġpanting": 7519,
      "Ġdesigns": 7520,
      "Ġtires": 7521,
      "Ġcomets": 7522,
      "Ġvanish": 7523,
      "ĠBluey": 7524,
      "Ġenviron": 7525,
      "Ġsurfer": 7526,
      "Ġsuits": 7527,
      "Ġsniffs": 7528,
      "Ġsnail": 7529,
      "affes": 7530,
      "Ġsuitcases": 7531,
      "ipsqueak": 7532,
      "ĠSeeing": 7533,
      "Ġsurroundings": 7534,
      "Ġfascinating": 7535,
      "Ġbuzzed": 7536,
      "Ġjailer": 7537,
      "Ġtwinkled": 7538,
      "Ġchatter": 7539,
      "Ġmints": 7540,
      "Ġgiraffes": 7541,
      "Always": 7542,
      "Ġsuffering": 7543,
      "ÅĵWeÃ¢": 7544,
      "Ġtalented": 7545,
      "Betsy": 7546,
      "Ġwider": 7547,
      "ĠBunBun": 7548,
      "Ġflavors": 7549,
      "Ġwiggle": 7550,
      "intment": 7551,
      "Ġscrubbing": 7552,
      "Ġcenter": 7553,
      "Peggy": 7554,
      "Ġleapt": 7555,
      "Ġinsects": 7556,
      "Julia": 7557,
      "Which": 7558,
      "Ġscraped": 7559,
      "ĠBounce": 7560,
      "ĠBouncy": 7561,
      "Ġcustomers": 7562,
      "Ġpouted": 7563,
      "Ġreassured": 7564,
      "Ġchipmunk": 7565,
      "Ġbehaving": 7566,
      "Ġforgiven": 7567,
      "Jessie": 7568,
      "Ġinstruments": 7569,
      "Excitedly": 7570,
      "Bubbles": 7571,
      "Ġinterrupt": 7572,
      "ĠPudding": 7573,
      "Ġsquishy": 7574,
      "Ġechoed": 7575,
      "Ġpossess": 7576,
      "Ġdevastated": 7577,
      "Ġanticipation": 7578,
      "Ġsuggestion": 7579,
      "Ġluxu": 7580,
      "ĠMaggy": 7581,
      "ĠAcceptor": 7582,
      "nifer": 7583,
      "Ġaudience": 7584,
      "Ġfarewell": 7585,
      "ĠTori": 7586,
      "enelope": 7587,
      "Ġnasty": 7588,
      "Ġweekend": 7589,
      "Ġmembers": 7590,
      "Ġcharacter": 7591,
      "Ġconflict": 7592,
      "Ġenvironment": 7593,
      "'?\"": 7594,
      "Aunt": 7595,
      "Br": 7596,
      "Cat": 7597,
      "Dear": 7598,
      "Follow": 7599,
      "Je": 7600,
      "Jon": 7601,
      "Joy": 7602,
      "Katie": 7603,
      "Lizzy": 7604,
      "Luke": 7605,
      "Out": 7606,
      "Sc": 7607,
      "Since": 7608,
      "Surpr": 7609,
      "Tiny": 7610,
      "Yummy": 7611,
      "aia": 7612,
      "bage": 7613,
      "belle": 7614,
      "even": 7615,
      "eens": 7616,
      "eese": 7617,
      "ky": 7618,
      "lt": 7619,
      "lin": 7620,
      "oh": 7621,
      "opped": 7622,
      "please": 7623,
      "rum": 7624,
      "taker": 7625,
      "vant": 7626,
      "vive": 7627,
      "zed": 7628,
      "zes": 7629,
      "zzy": 7630,
      "Ġtant": 7631,
      "Ġtipped": 7632,
      "Ġtumbled": 7633,
      "Ġtips": 7634,
      "Ġais": 7635,
      "Ġaim": 7636,
      "Ġaimed": 7637,
      "Ġsimp": 7638,
      "Ġsomers": 7639,
      "Ġwre": 7640,
      "Ġwins": 7641,
      "Ġwrench": 7642,
      "Ġtheat": 7643,
      "eds": 7644,
      "inch": 7645,
      "initely": 7646,
      "Ġtouc": 7647,
      "Ġbound": 7648,
      "Ġbaker": 7649,
      "Ġwaking": 7650,
      "ouched": 7651,
      "Ġfif": 7652,
      "Ġful": 7653,
      "Ġcakes": 7654,
      "Ġhen": 7655,
      "Ġdarl": 7656,
      "Ġmoo": 7657,
      "Ġmur": 7658,
      "Ġmerry": 7659,
      "Ġpiggy": 7660,
      "omer": 7661,
      "ĠTiger": 7662,
      "Ġgeese": 7663,
      "iliar": 7664,
      "ĠSay": 7665,
      "onse": 7666,
      "onest": 7667,
      "lle": 7668,
      "etey": 7669,
      "ĠHello": 7670,
      "ckless": 7671,
      "Ġbeating": 7672,
      "Ġyel": 7673,
      "ambled": 7674,
      "amiliar": 7675,
      "Ġstool": 7676,
      "Ġsteth": 7677,
      "Ġriddle": 7678,
      "Ġplopped": 7679,
      "ĠLucky": 7680,
      "ĠLove": 7681,
      "ĠLuckily": 7682,
      "ĠLively": 7683,
      "str": 7684,
      "Ġforce": 7685,
      "ently": 7686,
      "ittered": 7687,
      "unched": 7688,
      "ĠBecause": 7689,
      "ĠBiggy": 7690,
      "Ġshady": 7691,
      "Ġreapp": 7692,
      "Ġreckless": 7693,
      "Ġnecess": 7694,
      "Ġkings": 7695,
      "Ġass": 7696,
      "Ġaside": 7697,
      "ĠMabel": 7698,
      "ĠMae": 7699,
      "ĠMackenzie": 7700,
      "Ġbond": 7701,
      "ĠTimothy": 7702,
      "Ġouting": 7703,
      "artie": 7704,
      "ĠAm": 7705,
      "ĠAlf": 7706,
      "ĠAngie": 7707,
      "ightning": 7708,
      "Ġlevers": 7709,
      "Ġscen": 7710,
      "Ġscri": 7711,
      "Ġworn": 7712,
      "ĠWell": 7713,
      "ĠWater": 7714,
      "ĠWelcome": 7715,
      "aged": 7716,
      "ievous": 7717,
      "ielle": 7718,
      "Ġfacing": 7719,
      "Ġcond": 7720,
      "Ġbru": 7721,
      "ĠEric": 7722,
      "Ġchilly": 7723,
      "Ġchips": 7724,
      "ĠDepend": 7725,
      "usan": 7726,
      "Ġblast": 7727,
      "Ġblushed": 7728,
      "Ġcares": 7729,
      "Ġcaretaker": 7730,
      "Ġpopper": 7731,
      "anted": 7732,
      "ĠFuzz": 7733,
      "Ġtapping": 7734,
      "Ġhollow": 7735,
      "aps": 7736,
      "Ġtraded": 7737,
      "Ġtrading": 7738,
      "Ġtrotted": 7739,
      "Ġexplod": 7740,
      "ÅĵA": 7741,
      "ÅĵGood": 7742,
      "ÅĵWho": 7743,
      "Ġqueens": 7744,
      "ĠJoJo": 7745,
      "Ġbubbly": 7746,
      "Ġlongest": 7747,
      "Ġuntied": 7748,
      "Ġends": 7749,
      "Ġwobbled": 7750,
      "Ġfins": 7751,
      "Ġconcer": 7752,
      "ĠPan": 7753,
      "ĠPap": 7754,
      "ĠPoor": 7755,
      "ĠPenelope": 7756,
      "ipes": 7757,
      "Ġforeshadow": 7758,
      "Ġdisob": 7759,
      "Ġcleaner": 7760,
      "ĠGabby": 7761,
      "ĠGinger": 7762,
      "ffled": 7763,
      "ĠRoo": 7764,
      "ĠRich": 7765,
      "ĠRory": 7766,
      "ĠRhythm": 7767,
      "Ġhandsome": 7768,
      "Ġdeal": 7769,
      "sol": 7770,
      "Ġyells": 7771,
      "ĠNan": 7772,
      "Ġsquaw": 7773,
      "Ġuses": 7774,
      "ĠSpark": 7775,
      "Ġdifferently": 7776,
      "Ġsandpit": 7777,
      "Ġleaking": 7778,
      "Ġgladly": 7779,
      "Ġtasting": 7780,
      "Ġstepping": 7781,
      "Ġhearing": 7782,
      "Ġparted": 7783,
      "Ġdripping": 7784,
      "ĠKen": 7785,
      "ĠTherese": 7786,
      "Ġtables": 7787,
      "Ġpointy": 7788,
      "umbling": 7789,
      "Ġsails": 7790,
      "Ġunderstands": 7791,
      "Ġjoyful": 7792,
      "Ġcompan": 7793,
      "Ġvegg": 7794,
      "Ġtalks": 7795,
      "Ġguide": 7796,
      "Ġgulp": 7797,
      "oscope": 7798,
      "Ġgrowls": 7799,
      "anging": 7800,
      "uggles": 7801,
      "ixie": 7802,
      "iggs": 7803,
      "ĠFlutter": 7804,
      "Ġshaped": 7805,
      "Ġnaps": 7806,
      "Ġdesigning": 7807,
      "Ġwinked": 7808,
      "Ġmysteries": 7809,
      "Ġresponse": 7810,
      "Ġinvol": 7811,
      "Ġjars": 7812,
      "ertain": 7813,
      "ertie": 7814,
      "Ġanswering": 7815,
      "Ġchoices": 7816,
      "Ġpizzas": 7817,
      "Ġrobots": 7818,
      "Ġstorms": 7819,
      "Ġshirts": 7820,
      "Ġcheerfully": 7821,
      "Ġbells": 7822,
      "Ġbellies": 7823,
      "Ġgarbage": 7824,
      "ĠOff": 7825,
      "ĠOther": 7826,
      "Ġdecorating": 7827,
      "Ġself": 7828,
      "Ġwiping": 7829,
      "Ġtrusting": 7830,
      "Ġtests": 7831,
      "Ġroars": 7832,
      "Ġcandies": 7833,
      "illiam": 7834,
      "Ġbullies": 7835,
      "arlon": 7836,
      "Ġmanager": 7837,
      "Ġzookeeper": 7838,
      "Ġcracker": 7839,
      "Ġincredibly": 7840,
      "Ġtickling": 7841,
      "Ġscrub": 7842,
      "Ġscrambled": 7843,
      "Ġscarves": 7844,
      "Ġorders": 7845,
      "Ġpiled": 7846,
      "Ġprayers": 7847,
      "Ġkangaroos": 7848,
      "ĠZara": 7849,
      "ĠZip": 7850,
      "Ġdesks": 7851,
      "Ġapologised": 7852,
      "ĠNoah": 7853,
      "ault": 7854,
      "Ġvibr": 7855,
      "Ġrescuing": 7856,
      "Ġquestioned": 7857,
      "Ġpaying": 7858,
      "Ġspeeding": 7859,
      "ivia": 7860,
      "Ġmember": 7861,
      "Ġpepperoni": 7862,
      "Ġpermitted": 7863,
      "udged": 7864,
      "Ġdiscoveries": 7865,
      "Ġpencils": 7866,
      "Ġsniffing": 7867,
      "Ġpedaled": 7868,
      "Ġowlet": 7869,
      "Ġkayaking": 7870,
      "Ġdisplayed": 7871,
      "Ġpads": 7872,
      "ĠshouldnÃ¢": 7873,
      "Ġsymbols": 7874,
      "abina": 7875,
      "Ġappreciation": 7876,
      "Ġthumbs": 7877,
      "Ġbracelets": 7878,
      "agging": 7879,
      "Ġpanicked": 7880,
      "Ġdisturbing": 7881,
      "Anne": 7882,
      "Ġmillion": 7883,
      "Ġpigeons": 7884,
      "Ġcomputers": 7885,
      "Ġbeeped": 7886,
      "Ġreversed": 7887,
      "Ġreversing": 7888,
      "ĠCari": 7889,
      "aitlyn": 7890,
      "Ġchatted": 7891,
      "Ġapplauding": 7892,
      "ĠOliver": 7893,
      "ĠOlivia": 7894,
      "Ġscratching": 7895,
      "ĠRudy": 7896,
      "ĠLiza": 7897,
      "ĠWhoever": 7898,
      "Ġshovels": 7899,
      "Ġweights": 7900,
      "Ġpedaling": 7901,
      "Ġlicking": 7902,
      "Beth": 7903,
      "Ġcaution": 7904,
      "ĠPatty": 7905,
      "Ġsprinkled": 7906,
      "Ġactivity": 7907,
      "ĠTessa": 7908,
      "Ġresponsibly": 7909,
      "Ġmasterp": 7910,
      "Ġsewing": 7911,
      "Ġsilently": 7912,
      "Ġastonished": 7913,
      "ĠJean": 7914,
      "Julie": 7915,
      "rrr": 7916,
      "Ġcustomer": 7917,
      "ĠWinter": 7918,
      "Ġstrolled": 7919,
      "Daniel": 7920,
      "ĠExcited": 7921,
      "Ġglittering": 7922,
      "Ġunfamiliar": 7923,
      "Ġtextures": 7924,
      "Ġdetails": 7925,
      "ĠSwim": 7926,
      "ummies": 7927,
      "ĠSpeedy": 7928,
      "Ġexpression": 7929,
      "Ġembarrassing": 7930,
      "ĠSharin": 7931,
      "Ġtingle": 7932,
      "Ġrisks": 7933,
      "Ġnearest": 7934,
      "ĠPrincess": 7935,
      "Ellie": 7936,
      "Ġinspired": 7937,
      "Ġcubes": 7938,
      "Ġconversation": 7939,
      "Froggy": 7940,
      "ĠSnuggles": 7941,
      "ĠSleepy": 7942,
      "ĠClarice": 7943,
      "Ġdirections": 7944,
      "Ruby": 7945,
      "Ġwaddled": 7946,
      "Ġcongratulated": 7947,
      "Ġevil": 7948,
      "ĠLibby": 7949,
      "ĠColorful": 7950,
      "Ġdefinitely": 7951,
      "Ġsnowflakes": 7952,
      "Ġpurpose": 7953,
      "Ġmischievous": 7954,
      "Ġluxury": 7955,
      "Ġtantrum": 7956,
      "Ġsimply": 7957,
      "Ġsomersault": 7958,
      "Ġtheatre": 7959,
      "Ġtouches": 7960,
      "Ġfulf": 7961,
      "Ġdarlings": 7962,
      "Ġstethoscope": 7963,
      "ĠDependable": 7964,
      "Ġveggies": 7965,
      "Bl": 7966,
      "Bird": 7967,
      "Bee": 7968,
      "Doug": 7969,
      "David": 7970,
      "Elly": 7971,
      "Gl": 7972,
      "Gigi": 7973,
      "Hold": 7974,
      "Hmm": 7975,
      "June": 7976,
      "Lulu": 7977,
      "Lizzie": 7978,
      "Micky": 7979,
      "Mabel": 7980,
      "Nee": 7981,
      "Ol": 7982,
      "Op": 7983,
      "Pa": 7984,
      "Put": 7985,
      "Paula": 7986,
      "Rob": 7987,
      "Rosie": 7988,
      "Rita": 7989,
      "Silly": 7990,
      "Sunny": 7991,
      "Slowly": 7992,
      "Zoe": 7993,
      "action": 7994,
      "bi": 7995,
      "bel": 7996,
      "bur": 7997,
      "cher": 7998,
      "cip": 7999,
      "cup": 8000,
      "ebe": 8001,
      "five": 8002,
      "fork": 8003,
      "lish": 8004,
      "oc": 8005,
      "oss": 8006,
      "oey": 8007,
      "ping": 8008,
      "sion": 8009,
      "tock": 8010,
      "val": 8011,
      "ware": 8012,
      "welcome": 8013,
      "Ġ2": 8014,
      "Ġill": 8015,
      "ĠOh": 8016,
      "Ġtill": 8017,
      "Ġtiss": 8018,
      "Ġtugging": 8019,
      "Ġtummies": 8020,
      "Ġsy": 8021,
      "Ġsou": 8022,
      "Ġsill": 8023,
      "inct": 8024,
      "innie": 8025,
      "Ġtoss": 8026,
      "Ġtossed": 8027,
      "Ġbom": 8028,
      "Ġwax": 8029,
      "Ġwanna": 8030,
      "Ġwakes": 8031,
      "Ġfaint": 8032,
      "ition": 8033,
      "ering": 8034,
      "erted": 8035,
      "Ġdip": 8036,
      "Ġpound": 8037,
      "Ġpec": 8038,
      "ĠTino": 8039,
      "isions": 8040,
      "ido": 8041,
      "ening": 8042,
      "Ġsav": 8043,
      "Ġnym": 8044,
      "ĠSk": 8045,
      "ĠSpr": 8046,
      "ĠSummer": 8047,
      "ĠSuna": 8048,
      "ĠSince": 8049,
      "ĠSasha": 8050,
      "ĠSatur": 8051,
      "ĠSusan": 8052,
      "anish": 8053,
      "orking": 8054,
      "ords": 8055,
      "ĠHi": 8056,
      "ĠHallow": 8057,
      "ĠHarper": 8058,
      "Ġinj": 8059,
      "owing": 8060,
      "ester": 8061,
      "uther": 8062,
      "Ġelect": 8063,
      "ighing": 8064,
      "Ġstain": 8065,
      "Ġstung": 8066,
      "cel": 8067,
      "cell": 8068,
      "Ġrays": 8069,
      "Ġsoot": 8070,
      "ĠIm": 8071,
      "ĠIzzy": 8072,
      "adel": 8073,
      "ados": 8074,
      "ĠLenny": 8075,
      "ĠLots": 8076,
      "ĠLacy": 8077,
      "ĠLouie": 8078,
      "stick": 8079,
      "elvet": 8080,
      "Ġform": 8081,
      "Ġshallow": 8082,
      "allory": 8083,
      "Ġwhoosh": 8084,
      "ended": 8085,
      "Ġrewards": 8086,
      "Ġrejo": 8087,
      "Ġreaction": 8088,
      "alia": 8089,
      "ĠMacy": 8090,
      "ĠMaple": 8091,
      "race": 8092,
      "Ġlocks": 8093,
      "Ġjay": 8094,
      "Ġgoats": 8095,
      "Ġsped": 8096,
      "Ġspills": 8097,
      "ĠAbi": 8098,
      "Ġknots": 8099,
      "Ġclut": 8100,
      "Ġaloud": 8101,
      "Ġalthough": 8102,
      "Ġscored": 8103,
      "Ġrobb": 8104,
      "Ġagrees": 8105,
      "Ġfaith": 8106,
      "Ġcoc": 8107,
      "Ġcosy": 8108,
      "Ġbride": 8109,
      "Ġotherwise": 8110,
      "Ġwhose": 8111,
      "Ġblues": 8112,
      "Ġblades": 8113,
      "Ġbloss": 8114,
      "Ġposes": 8115,
      "ĠFair": 8116,
      "ĠFae": 8117,
      "ĠFurball": 8118,
      "ĠFido": 8119,
      "oured": 8120,
      "Ġtrans": 8121,
      "master": 8122,
      "nail": 8123,
      "Ġskates": 8124,
      "ÅĵS": 8125,
      "ÅĵW": 8126,
      "ÅĵOkay": 8127,
      "ÅĵThere": 8128,
      "ÅĵThanks": 8129,
      "andra": 8130,
      "ĠJog": 8131,
      "ĠJokes": 8132,
      "ortun": 8133,
      "ĠJackie": 8134,
      "oys": 8135,
      "empt": 8136,
      "Ġsurvive": 8137,
      "Ġbeautifully": 8138,
      "Ġgardens": 8139,
      "Ġgardener": 8140,
      "Ġraises": 8141,
      "Ġracer": 8142,
      "Ġraising": 8143,
      "ĠCelery": 8144,
      "ĠCurious": 8145,
      "ĠCleaning": 8146,
      "Ġcheers": 8147,
      "Ġcheated": 8148,
      "ective": 8149,
      "Ġhardest": 8150,
      "ĠAnnabelle": 8151,
      "Ġglued": 8152,
      "Ġglittered": 8153,
      "Ġdangers": 8154,
      "Ġstopping": 8155,
      "ĠPaw": 8156,
      "ĠPlay": 8157,
      "ĠPipsqueak": 8158,
      "ĠPinch": 8159,
      "ĠPetey": 8160,
      "iped": 8161,
      "Ġwinding": 8162,
      "Ġthrone": 8163,
      "Ġcloses": 8164,
      "ĠGina": 8165,
      "ĠGavin": 8166,
      "Josie": 8167,
      "Ġsmiley": 8168,
      "Ġjoey": 8169,
      "ĠRoy": 8170,
      "ĠRibbit": 8171,
      "Ġworker": 8172,
      "Ġdevice": 8173,
      "Ġache": 8174,
      "Ġtoward": 8175,
      "Ġtowels": 8176,
      "ĠNee": 8177,
      "ĠNancy": 8178,
      "Ġbuses": 8179,
      "Ġheadache": 8180,
      "Ġcontract": 8181,
      "ĠSpanish": 8182,
      "Ġbiting": 8183,
      "Ġzigz": 8184,
      "Ġcrouched": 8185,
      "Ġforgives": 8186,
      "Ġstorybook": 8187,
      "ounting": 8188,
      "ĠLeticia": 8189,
      "Ġdrawers": 8190,
      "Ġworrying": 8191
    },
    "merges": [
      [
        "h",
        "e"
      ],
      [
        "Ġ",
        "t"
      ],
      [
        "Ġ",
        "a"
      ],
      [
        "Ġ",
        "s"
      ],
      [
        "Ġ",
        "w"
      ],
      [
        "n",
        "d"
      ],
      [
        "Ġt",
        "he"
      ],
      [
        "e",
        "d"
      ],
      [
        "Ġa",
        "nd"
      ],
      [
        "i",
        "n"
      ],
      [
        "Ġt",
        "o"
      ],
      [
        "Ġ",
        "b"
      ],
      [
        "Ġ",
        "h"
      ],
      [
        "Ġw",
        "a"
      ],
      [
        "r",
        "e"
      ],
      [
        "o",
        "u"
      ],
      [
        "Ġ",
        "f"
      ],
      [
        "i",
        "t"
      ],
      [
        "Ġ",
        "l"
      ],
      [
        "Ġ",
        "c"
      ],
      [
        "Ġ",
        "he"
      ],
      [
        "e",
        "r"
      ],
      [
        "Ġ",
        "d"
      ],
      [
        "Ġwa",
        "s"
      ],
      [
        "Ġ",
        "m"
      ],
      [
        "Ġ",
        "p"
      ],
      [
        "o",
        "m"
      ],
      [
        "Ġ",
        "o"
      ],
      [
        "in",
        "g"
      ],
      [
        "Ġ",
        "T"
      ],
      [
        "a",
        "r"
      ],
      [
        "a",
        "y"
      ],
      [
        "i",
        "s"
      ],
      [
        "Ġ",
        "g"
      ],
      [
        "i",
        "d"
      ],
      [
        "i",
        "l"
      ],
      [
        "a",
        "t"
      ],
      [
        "e",
        "n"
      ],
      [
        "Ġs",
        "a"
      ],
      [
        "Ġ",
        "n"
      ],
      [
        "Ġh",
        "a"
      ],
      [
        "Ġ",
        "S"
      ],
      [
        "a",
        "n"
      ],
      [
        "i",
        "m"
      ],
      [
        "o",
        "r"
      ],
      [
        "o",
        "n"
      ],
      [
        "ĠT",
        "he"
      ],
      [
        "Ġt",
        "h"
      ],
      [
        "Ġ",
        "it"
      ],
      [
        "l",
        "l"
      ],
      [
        "l",
        "e"
      ],
      [
        "e",
        "t"
      ],
      [
        "Ġ",
        "H"
      ],
      [
        "Ġhe",
        "r"
      ],
      [
        "i",
        "r"
      ],
      [
        "o",
        "t"
      ],
      [
        "ĠS",
        "he"
      ],
      [
        "Ġ",
        "in"
      ],
      [
        "ĠH",
        "e"
      ],
      [
        "v",
        "er"
      ],
      [
        "o",
        "w"
      ],
      [
        "e",
        "s"
      ],
      [
        "c",
        "k"
      ],
      [
        "u",
        "t"
      ],
      [
        "Ġ",
        "e"
      ],
      [
        "l",
        "d"
      ],
      [
        "Ġ",
        "u"
      ],
      [
        "Ġsa",
        "id"
      ],
      [
        "Ġ",
        "\""
      ],
      [
        "i",
        "g"
      ],
      [
        "o",
        "o"
      ],
      [
        "Ġb",
        "e"
      ],
      [
        "Ġ",
        "y"
      ],
      [
        "Ġs",
        "he"
      ],
      [
        "a",
        "m"
      ],
      [
        "Ġs",
        "t"
      ],
      [
        "c",
        "e"
      ],
      [
        "Ġ",
        "r"
      ],
      [
        "p",
        "p"
      ],
      [
        "O",
        "n"
      ],
      [
        "it",
        "h"
      ],
      [
        "k",
        "e"
      ],
      [
        "Ġs",
        "o"
      ],
      [
        "Ġw",
        "ith"
      ],
      [
        "ĠThe",
        "y"
      ],
      [
        "k",
        "ed"
      ],
      [
        "il",
        "y"
      ],
      [
        "Ġo",
        "f"
      ],
      [
        "v",
        "e"
      ],
      [
        "Ġ",
        "I"
      ],
      [
        "Ġh",
        "is"
      ],
      [
        "r",
        "i"
      ],
      [
        "Ġo",
        "n"
      ],
      [
        "Ġd",
        "ay"
      ],
      [
        "ver",
        "y"
      ],
      [
        "Ġp",
        "l"
      ],
      [
        "Ġy",
        "ou"
      ],
      [
        "a",
        "d"
      ],
      [
        "n",
        "t"
      ],
      [
        "Ġ",
        "L"
      ],
      [
        "Ġth",
        "at"
      ],
      [
        "Ġu",
        "p"
      ],
      [
        "s",
        "t"
      ],
      [
        "Ġha",
        "d"
      ],
      [
        "e",
        "l"
      ],
      [
        "Ġpl",
        "ay"
      ],
      [
        "Ġthe",
        "y"
      ],
      [
        "ou",
        "ld"
      ],
      [
        "Ġm",
        "om"
      ],
      [
        "m",
        "y"
      ],
      [
        "Ġf",
        "or"
      ],
      [
        "'",
        "s"
      ],
      [
        "Ġw",
        "e"
      ],
      [
        "en",
        "t"
      ],
      [
        "it",
        "t"
      ],
      [
        "T",
        "he"
      ],
      [
        "u",
        "n"
      ],
      [
        "ĠL",
        "ily"
      ],
      [
        "he",
        "r"
      ],
      [
        "ou",
        "t"
      ],
      [
        "Ġha",
        "pp"
      ],
      [
        "l",
        "y"
      ],
      [
        "c",
        "h"
      ],
      [
        "Ġ",
        "B"
      ],
      [
        "Ġl",
        "i"
      ],
      [
        "itt",
        "le"
      ],
      [
        "ou",
        "nd"
      ],
      [
        "Ġs",
        "h"
      ],
      [
        "Ġl",
        "ittle"
      ],
      [
        "im",
        "e"
      ],
      [
        "Ġwa",
        "nt"
      ],
      [
        "a",
        "ll"
      ],
      [
        "Ġt",
        "ime"
      ],
      [
        "Ġthe",
        "re"
      ],
      [
        "Ġ",
        "very"
      ],
      [
        "Ġw",
        "h"
      ],
      [
        "e",
        "nd"
      ],
      [
        "s",
        "e"
      ],
      [
        "h",
        "t"
      ],
      [
        "om",
        "e"
      ],
      [
        "Ġs",
        "m"
      ],
      [
        "Ġd",
        "o"
      ],
      [
        "Ġ",
        "re"
      ],
      [
        "a",
        "l"
      ],
      [
        "Ġn",
        "e"
      ],
      [
        "Ġ",
        "k"
      ],
      [
        "a",
        "ck"
      ],
      [
        "Ġa",
        "s"
      ],
      [
        "Ġb",
        "ig"
      ],
      [
        "Ġhapp",
        "y"
      ],
      [
        "ri",
        "end"
      ],
      [
        "Ġf",
        "riend"
      ],
      [
        "Ġb",
        "ut"
      ],
      [
        "Ġa",
        "n"
      ],
      [
        "Ġsa",
        "w"
      ],
      [
        "Ġn",
        "ot"
      ],
      [
        "On",
        "e"
      ],
      [
        "Ġ",
        "M"
      ],
      [
        "r",
        "a"
      ],
      [
        "On",
        "ce"
      ],
      [
        "id",
        "e"
      ],
      [
        "'",
        "t"
      ],
      [
        "v",
        "ed"
      ],
      [
        "r",
        "y"
      ],
      [
        "Ġl",
        "oo"
      ],
      [
        ".",
        "\""
      ],
      [
        "!",
        "\""
      ],
      [
        "ĠI",
        "t"
      ],
      [
        "u",
        "g"
      ],
      [
        "e",
        "c"
      ],
      [
        "Ġ",
        "is"
      ],
      [
        "t",
        "er"
      ],
      [
        "a",
        "ke"
      ],
      [
        "o",
        "re"
      ],
      [
        "Ġwe",
        "re"
      ],
      [
        "ir",
        "l"
      ],
      [
        "Ġl",
        "o"
      ],
      [
        "Ġb",
        "o"
      ],
      [
        "Ġup",
        "on"
      ],
      [
        "Ġg",
        "irl"
      ],
      [
        "Ġh",
        "im"
      ],
      [
        "ar",
        "d"
      ],
      [
        "ĠT",
        "im"
      ],
      [
        "Ġ",
        "j"
      ],
      [
        "Ġ",
        "out"
      ],
      [
        "Ġg",
        "o"
      ],
      [
        "Ġto",
        "o"
      ],
      [
        "Ġwant",
        "ed"
      ],
      [
        "Ġsm",
        "il"
      ],
      [
        "f",
        "u"
      ],
      [
        "Ġs",
        "e"
      ],
      [
        "Ġ",
        "J"
      ],
      [
        "Ġs",
        "p"
      ],
      [
        "he",
        "n"
      ],
      [
        "Ġe",
        "x"
      ],
      [
        "Ġc",
        "ould"
      ],
      [
        "il",
        "l"
      ],
      [
        "w",
        "ay"
      ],
      [
        "i",
        "nd"
      ],
      [
        "u",
        "r"
      ],
      [
        "Ġa",
        "t"
      ],
      [
        "a",
        "in"
      ],
      [
        "r",
        "ound"
      ],
      [
        "Ġw",
        "ent"
      ],
      [
        "ar",
        "t"
      ],
      [
        "he",
        "d"
      ],
      [
        "Ġ",
        "A"
      ],
      [
        "i",
        "c"
      ],
      [
        "Ġthe",
        "m"
      ],
      [
        "h",
        "ing"
      ],
      [
        "r",
        "om"
      ],
      [
        "Ġn",
        "am"
      ],
      [
        "Ġd",
        "id"
      ],
      [
        "u",
        "m"
      ],
      [
        "fu",
        "l"
      ],
      [
        "l",
        "p"
      ],
      [
        "Ġthe",
        "ir"
      ],
      [
        "Ã",
        "¢"
      ],
      [
        "â",
        "Ĥ"
      ],
      [
        "âĤ",
        "¬"
      ],
      [
        "Ġa",
        "ll"
      ],
      [
        "ig",
        "ht"
      ],
      [
        "Ġfriend",
        "s"
      ],
      [
        "Ġhe",
        "lp"
      ],
      [
        "Ġa",
        "re"
      ],
      [
        "on",
        "e"
      ],
      [
        "?",
        "\""
      ],
      [
        "Ġha",
        "ve"
      ],
      [
        "Ġc",
        "an"
      ],
      [
        "Ġsmil",
        "ed"
      ],
      [
        "Ġk",
        "n"
      ],
      [
        "Ġb",
        "ack"
      ],
      [
        "oo",
        "d"
      ],
      [
        "ar",
        "k"
      ],
      [
        "ou",
        "g"
      ],
      [
        "Ġc",
        "l"
      ],
      [
        "Ġas",
        "ked"
      ],
      [
        "a",
        "re"
      ],
      [
        "Ġnam",
        "ed"
      ],
      [
        "Ġf",
        "un"
      ],
      [
        "Ġa",
        "round"
      ],
      [
        "el",
        "t"
      ],
      [
        "o",
        "p"
      ],
      [
        "Ġl",
        "e"
      ],
      [
        "s",
        "ide"
      ],
      [
        "Ġlo",
        "ved"
      ],
      [
        "i",
        "ck"
      ],
      [
        "Ġn",
        "o"
      ],
      [
        "Ġ",
        "One"
      ],
      [
        "Ġloo",
        "ked"
      ],
      [
        "Ġa",
        "l"
      ],
      [
        "Ġf",
        "elt"
      ],
      [
        "om",
        "et"
      ],
      [
        "g",
        "et"
      ],
      [
        "Ġs",
        "c"
      ],
      [
        "am",
        "e"
      ],
      [
        "Ġbo",
        "y"
      ],
      [
        "Ġf",
        "e"
      ],
      [
        "ĠTim",
        "my"
      ],
      [
        "Ġst",
        "art"
      ],
      [
        "u",
        "re"
      ],
      [
        "ĠB",
        "en"
      ],
      [
        "ir",
        "d"
      ],
      [
        "d",
        "d"
      ],
      [
        "Ġm",
        "an"
      ],
      [
        "Ġw",
        "ould"
      ],
      [
        "i",
        "ce"
      ],
      [
        "Ġs",
        "omet"
      ],
      [
        "r",
        "o"
      ],
      [
        "a",
        "s"
      ],
      [
        "Ġse",
        "e"
      ],
      [
        "ĠT",
        "om"
      ],
      [
        "Ġm",
        "e"
      ],
      [
        "Ġli",
        "ke"
      ],
      [
        "Y",
        "ou"
      ],
      [
        "Ġr",
        "o"
      ],
      [
        "re",
        "e"
      ],
      [
        "k",
        "ing"
      ],
      [
        "Ġto",
        "y"
      ],
      [
        "on",
        "g"
      ],
      [
        "get",
        "her"
      ],
      [
        "Ġw",
        "or"
      ],
      [
        "Ġb",
        "ird"
      ],
      [
        "Ġs",
        "ome"
      ],
      [
        "Ġ",
        "W"
      ],
      [
        "Ġstart",
        "ed"
      ],
      [
        "Ġa",
        "g"
      ],
      [
        "a",
        "g"
      ],
      [
        "it",
        "ed"
      ],
      [
        "Ġto",
        "gether"
      ],
      [
        "Ġsomet",
        "hing"
      ],
      [
        "Ġwh",
        "at"
      ],
      [
        "i",
        "e"
      ],
      [
        "Ġex",
        "c"
      ],
      [
        "ing",
        "s"
      ],
      [
        "ad",
        "e"
      ],
      [
        "ow",
        "n"
      ],
      [
        "Ġf",
        "a"
      ],
      [
        "Ġa",
        "way"
      ],
      [
        "ar",
        "ed"
      ],
      [
        ",",
        "\""
      ],
      [
        "ou",
        "d"
      ],
      [
        "Ġr",
        "an"
      ],
      [
        "b",
        "le"
      ],
      [
        "pp",
        "ed"
      ],
      [
        "Ġs",
        "ay"
      ],
      [
        "i",
        "f"
      ],
      [
        "h",
        "at"
      ],
      [
        "Ġp",
        "ark"
      ],
      [
        "Ġm",
        "ake"
      ],
      [
        "p",
        "l"
      ],
      [
        "Ġw",
        "hen"
      ],
      [
        "Ġm",
        "ade"
      ],
      [
        "Ġthe",
        "n"
      ],
      [
        "Ġf",
        "rom"
      ],
      [
        "Ġc",
        "o"
      ],
      [
        "Ġm",
        "u"
      ],
      [
        "ĠB",
        "ut"
      ],
      [
        "Ġb",
        "r"
      ],
      [
        "Ġo",
        "t"
      ],
      [
        "Ġl",
        "a"
      ],
      [
        "Ġc",
        "ar"
      ],
      [
        "Ġsa",
        "d"
      ],
      [
        "Ġh",
        "ome"
      ],
      [
        "all",
        "y"
      ],
      [
        "Ġne",
        "w"
      ],
      [
        "Ġag",
        "ain"
      ],
      [
        "Ġwa",
        "l"
      ],
      [
        "Ġf",
        "ound"
      ],
      [
        "e",
        "ll"
      ],
      [
        "Ġot",
        "her"
      ],
      [
        "Ġexc",
        "ited"
      ],
      [
        "oug",
        "ht"
      ],
      [
        "e",
        "p"
      ],
      [
        "q",
        "u"
      ],
      [
        "Ġp",
        "ut"
      ],
      [
        "es",
        "t"
      ],
      [
        "s",
        "s"
      ],
      [
        "Ġwh",
        "o"
      ],
      [
        "Ġf",
        "l"
      ],
      [
        "Ġ",
        "E"
      ],
      [
        "Ġg",
        "et"
      ],
      [
        "Ġplay",
        "ing"
      ],
      [
        "Ġd",
        "ec"
      ],
      [
        "L",
        "ily"
      ],
      [
        "Ġh",
        "ug"
      ],
      [
        "Ġc",
        "h"
      ],
      [
        "ou",
        "s"
      ],
      [
        "ri",
        "ed"
      ],
      [
        "Ġp",
        "r"
      ],
      [
        "Ġg",
        "ood"
      ],
      [
        "Ġ",
        "v"
      ],
      [
        "Ġ",
        "You"
      ],
      [
        "a",
        "ch"
      ],
      [
        "u",
        "ck"
      ],
      [
        "Ġs",
        "w"
      ],
      [
        "n",
        "y"
      ],
      [
        "Ġg",
        "ot"
      ],
      [
        "u",
        "dd"
      ],
      [
        "Ġth",
        "ings"
      ],
      [
        "Ġe",
        "very"
      ],
      [
        "id",
        "ed"
      ],
      [
        "a",
        "ve"
      ],
      [
        "Ġ",
        "D"
      ],
      [
        "oo",
        "k"
      ],
      [
        "Ġc",
        "ame"
      ],
      [
        "Ġdec",
        "ided"
      ],
      [
        "u",
        "st"
      ],
      [
        "Ġon",
        "e"
      ],
      [
        "u",
        "s"
      ],
      [
        "ou",
        "se"
      ],
      [
        "Ġd",
        "own"
      ],
      [
        "Ġth",
        "an"
      ],
      [
        "Ġbe",
        "c"
      ],
      [
        "Ġt",
        "ree"
      ],
      [
        "Ġsc",
        "ared"
      ],
      [
        "Ġb",
        "l"
      ],
      [
        "Ġfe",
        "el"
      ],
      [
        "way",
        "s"
      ],
      [
        "Ġf",
        "ind"
      ],
      [
        "Ġc",
        "are"
      ],
      [
        "b",
        "b"
      ],
      [
        "Ġli",
        "ked"
      ],
      [
        "Ġd",
        "ad"
      ],
      [
        "Ġdo",
        "g"
      ],
      [
        "Ġal",
        "ways"
      ],
      [
        "Ġa",
        "b"
      ],
      [
        "a",
        "x"
      ],
      [
        "Ġ",
        "ke"
      ],
      [
        "Ġp",
        "o"
      ],
      [
        "an",
        "t"
      ],
      [
        "Ġo",
        "ld"
      ],
      [
        "is",
        "t"
      ],
      [
        "Ġ",
        "F"
      ],
      [
        "nd",
        "er"
      ],
      [
        "ec",
        "i"
      ],
      [
        "Ġth",
        "ought"
      ],
      [
        "udd",
        "en"
      ],
      [
        "u",
        "e"
      ],
      [
        "ar",
        "a"
      ],
      [
        "Ġdid",
        "n"
      ],
      [
        "Ġyou",
        "r"
      ],
      [
        "Ġl",
        "ot"
      ],
      [
        "Ġt",
        "a"
      ],
      [
        "Ġkn",
        "e"
      ],
      [
        "ou",
        "r"
      ],
      [
        "Ġg",
        "ra"
      ],
      [
        "Ġab",
        "out"
      ],
      [
        "Ġin",
        "t"
      ],
      [
        "c",
        "hed"
      ],
      [
        "f",
        "e"
      ],
      [
        "it",
        "e"
      ],
      [
        "udden",
        "ly"
      ],
      [
        "Ġloo",
        "k"
      ],
      [
        "Ġout",
        "side"
      ],
      [
        "Ġtoo",
        "k"
      ],
      [
        "eci",
        "al"
      ],
      [
        "Ġsp",
        "ecial"
      ],
      [
        "Ġh",
        "o"
      ],
      [
        "er",
        "s"
      ],
      [
        "Ġsay",
        "s"
      ],
      [
        "is",
        "e"
      ],
      [
        "es",
        "s"
      ],
      [
        "Ġla",
        "ug"
      ],
      [
        "en",
        "ed"
      ],
      [
        "n",
        "ed"
      ],
      [
        "Ġm",
        "y"
      ],
      [
        "Ġmom",
        "my"
      ],
      [
        "Ġt",
        "ake"
      ],
      [
        "g",
        "ed"
      ],
      [
        "Ġkne",
        "w"
      ],
      [
        "ĠM",
        "om"
      ],
      [
        "re",
        "at"
      ],
      [
        "a",
        "p"
      ],
      [
        "Ġp",
        "e"
      ],
      [
        "f",
        "ter"
      ],
      [
        "Ġm",
        "ore"
      ],
      [
        "Ġkn",
        "ow"
      ],
      [
        "Ġan",
        "y"
      ],
      [
        "re",
        "t"
      ],
      [
        "Ġle",
        "ar"
      ],
      [
        "Ġb",
        "all"
      ],
      [
        "Ġt",
        "r"
      ],
      [
        "Ġtoy",
        "s"
      ],
      [
        "o",
        "b"
      ],
      [
        "Ġc",
        "at"
      ],
      [
        "i",
        "ve"
      ],
      [
        "Ġt",
        "w"
      ],
      [
        "v",
        "en"
      ],
      [
        "m",
        "a"
      ],
      [
        "n",
        "a"
      ],
      [
        "Ġs",
        "un"
      ],
      [
        "Ġh",
        "ow"
      ],
      [
        "Ġex",
        "pl"
      ],
      [
        "Ġ",
        "en"
      ],
      [
        "Ġcould",
        "n"
      ],
      [
        "Ġw",
        "ill"
      ],
      [
        "Ġs",
        "k"
      ],
      [
        "Å",
        "ĵ"
      ],
      [
        "The",
        "y"
      ],
      [
        "Ġint",
        "o"
      ],
      [
        "Ġmu",
        "ch"
      ],
      [
        "Ġ",
        "qu"
      ],
      [
        "Ġsh",
        "ow"
      ],
      [
        "Ġm",
        "o"
      ],
      [
        "ĠM",
        "ax"
      ],
      [
        "ĠS",
        "am"
      ],
      [
        "a",
        "nd"
      ],
      [
        "Ġcl",
        "o"
      ],
      [
        "a",
        "u"
      ],
      [
        "Ġne",
        "ver"
      ],
[...]
